{
  "version": "1.0",
  "truncation": null,
  "padding": null,
  "added_tokens": [
    {
      "id": 0,
      "content": "[UNK]",
      "single_word": false,
      "lstrip": false,
      "rstrip": false,
      "normalized": false,
      "special": true
    },
    {
      "id": 1,
      "content": "[CLS]",
      "single_word": false,
      "lstrip": false,
      "rstrip": false,
      "normalized": false,
      "special": true
    },
    {
      "id": 2,
      "content": "[SEP]",
      "single_word": false,
      "lstrip": false,
      "rstrip": false,
      "normalized": false,
      "special": true
    },
    {
      "id": 3,
      "content": "[PAD]",
      "single_word": false,
      "lstrip": false,
      "rstrip": false,
      "normalized": false,
      "special": true
    },
    {
      "id": 4,
      "content": "[MASK]",
      "single_word": false,
      "lstrip": false,
      "rstrip": false,
      "normalized": false,
      "special": true
    }
  ],
  "normalizer": {
    "type": "Sequence",
    "normalizers": [
      {
        "type": "NFD"
      },
      {
        "type": "Lowercase"
      },
      {
        "type": "StripAccents"
      }
    ]
  },
  "pre_tokenizer": {
    "type": "Whitespace"
  },
  "post_processor": {
    "type": "TemplateProcessing",
    "single": [
      {
        "SpecialToken": {
          "id": "[CLS]",
          "type_id": 0
        }
      },
      {
        "Sequence": {
          "id": "A",
          "type_id": 0
        }
      },
      {
        "SpecialToken": {
          "id": "[SEP]",
          "type_id": 0
        }
      }
    ],
    "pair": [
      {
        "SpecialToken": {
          "id": "[CLS]",
          "type_id": 0
        }
      },
      {
        "Sequence": {
          "id": "A",
          "type_id": 0
        }
      },
      {
        "SpecialToken": {
          "id": "[SEP]",
          "type_id": 0
        }
      },
      {
        "Sequence": {
          "id": "B",
          "type_id": 1
        }
      },
      {
        "SpecialToken": {
          "id": "[SEP]",
          "type_id": 1
        }
      }
    ],
    "special_tokens": {
      "[CLS]": {
        "id": "[CLS]",
        "ids": [
          1
        ],
        "tokens": [
          "[CLS]"
        ]
      },
      "[SEP]": {
        "id": "[SEP]",
        "ids": [
          2
        ],
        "tokens": [
          "[SEP]"
        ]
      }
    }
  },
  "decoder": {
    "type": "WordPiece",
    "prefix": "##",
    "cleanup": true
  },
  "model": {
    "type": "WordPiece",
    "unk_token": "[UNK]",
    "continuing_subword_prefix": "##",
    "max_input_chars_per_word": 100,
    "vocab": {
      "[UNK]": 0,
      "[CLS]": 1,
      "[SEP]": 2,
      "[PAD]": 3,
      "[MASK]": 4,
      "\u0005": 5,
      "!": 6,
      "\"": 7,
      "#": 8,
      "$": 9,
      "%": 10,
      "&": 11,
      "'": 12,
      "(": 13,
      ")": 14,
      "*": 15,
      "+": 16,
      ",": 17,
      "-": 18,
      ".": 19,
      "/": 20,
      "0": 21,
      "1": 22,
      "2": 23,
      "3": 24,
      "4": 25,
      "5": 26,
      "6": 27,
      "7": 28,
      "8": 29,
      "9": 30,
      ":": 31,
      ";": 32,
      "<": 33,
      "=": 34,
      ">": 35,
      "?": 36,
      "@": 37,
      "[": 38,
      "\\": 39,
      "]": 40,
      "^": 41,
      "_": 42,
      "`": 43,
      "a": 44,
      "b": 45,
      "c": 46,
      "d": 47,
      "e": 48,
      "f": 49,
      "g": 50,
      "h": 51,
      "i": 52,
      "j": 53,
      "k": 54,
      "l": 55,
      "m": 56,
      "n": 57,
      "o": 58,
      "p": 59,
      "q": 60,
      "r": 61,
      "s": 62,
      "t": 63,
      "u": 64,
      "v": 65,
      "w": 66,
      "x": 67,
      "y": 68,
      "z": 69,
      "{": 70,
      "|": 71,
      "}": 72,
      "~": 73,
      "": 74,
      "": 75,
      "": 76,
      "": 77,
      "": 78,
      "": 79,
      "": 80,
      "¡": 81,
      "¢": 82,
      "£": 83,
      "¦": 84,
      "¨": 85,
      "©": 86,
      "ª": 87,
      "«": 88,
      "¬": 89,
      "­": 90,
      "®": 91,
      "¯": 92,
      "°": 93,
      "²": 94,
      "³": 95,
      "´": 96,
      "·": 97,
      "º": 98,
      "»": 99,
      "¼": 100,
      "½": 101,
      "¾": 102,
      "¿": 103,
      "×": 104,
      "ß": 105,
      "æ": 106,
      "ð": 107,
      "ø": 108,
      "þ": 109,
      "œ": 110,
      "ƶ": 111,
      "˚": 112,
      "˜": 113,
      "π": 114,
      "а": 115,
      "б": 116,
      "в": 117,
      "г": 118,
      "д": 119,
      "е": 120,
      "ж": 121,
      "з": 122,
      "и": 123,
      "к": 124,
      "л": 125,
      "м": 126,
      "н": 127,
      "о": 128,
      "п": 129,
      "р": 130,
      "с": 131,
      "т": 132,
      "у": 133,
      "х": 134,
      "ч": 135,
      "ш": 136,
      "щ": 137,
      "ы": 138,
      "ь": 139,
      "э": 140,
      "ю": 141,
      "я": 142,
      "،": 143,
      "؟": 144,
      "ا": 145,
      "ب": 146,
      "ة": 147,
      "ت": 148,
      "ث": 149,
      "ج": 150,
      "ح": 151,
      "خ": 152,
      "د": 153,
      "ذ": 154,
      "ر": 155,
      "س": 156,
      "ش": 157,
      "ع": 158,
      "ف": 159,
      "ق": 160,
      "ك": 161,
      "ل": 162,
      "م": 163,
      "ن": 164,
      "ه": 165,
      "و": 166,
      "ي": 167,
      "࠶": 168,
      "अ": 169,
      "ई": 170,
      "क": 171,
      "ग": 172,
      "घ": 173,
      "च": 174,
      "छ": 175,
      "ज": 176,
      "त": 177,
      "द": 178,
      "न": 179,
      "ब": 180,
      "भ": 181,
      "म": 182,
      "र": 183,
      "व": 184,
      "स": 185,
      "ह": 186,
      "ᄀ": 187,
      "ᄁ": 188,
      "ᄂ": 189,
      "ᄃ": 190,
      "ᄄ": 191,
      "ᄅ": 192,
      "ᄆ": 193,
      "ᄇ": 194,
      "ᄈ": 195,
      "ᄉ": 196,
      "ᄊ": 197,
      "ᄋ": 198,
      "ᄌ": 199,
      "ᄍ": 200,
      "ᄎ": 201,
      "ᄏ": 202,
      "ᄐ": 203,
      "ᄑ": 204,
      "ᄒ": 205,
      "ᅡ": 206,
      "ᅢ": 207,
      "ᅣ": 208,
      "ᅤ": 209,
      "ᅥ": 210,
      "ᅦ": 211,
      "ᅧ": 212,
      "ᅨ": 213,
      "ᅩ": 214,
      "ᅪ": 215,
      "ᅫ": 216,
      "ᅬ": 217,
      "ᅭ": 218,
      "ᅮ": 219,
      "ᅯ": 220,
      "ᅰ": 221,
      "ᅱ": 222,
      "ᅲ": 223,
      "ᅳ": 224,
      "ᅴ": 225,
      "ᅵ": 226,
      "ᆨ": 227,
      "ᆩ": 228,
      "ᆫ": 229,
      "ᆬ": 230,
      "ᆭ": 231,
      "ᆮ": 232,
      "ᆯ": 233,
      "ᆶ": 234,
      "ᆷ": 235,
      "ᆸ": 236,
      "ᆹ": 237,
      "ᆺ": 238,
      "ᆻ": 239,
      "ᆼ": 240,
      "ᆽ": 241,
      "ᆾ": 242,
      "ᇀ": 243,
      "ᇁ": 244,
      "ᇂ": 245,
      "​": 246,
      "–": 247,
      "—": 248,
      "―": 249,
      "‘": 250,
      "’": 251,
      "‚": 252,
      "“": 253,
      "”": 254,
      "•": 255,
      "…": 256,
      "€": 257,
      "™": 258,
      "↑": 259,
      "★": 260,
      "♥": 261,
      "♪": 262,
      "♫": 263,
      "、": 264,
      "。": 265,
      "あ": 266,
      "い": 267,
      "う": 268,
      "え": 269,
      "お": 270,
      "か": 271,
      "き": 272,
      "く": 273,
      "け": 274,
      "こ": 275,
      "さ": 276,
      "し": 277,
      "す": 278,
      "せ": 279,
      "そ": 280,
      "た": 281,
      "ち": 282,
      "っ": 283,
      "つ": 284,
      "て": 285,
      "と": 286,
      "な": 287,
      "に": 288,
      "ね": 289,
      "の": 290,
      "は": 291,
      "へ": 292,
      "ま": 293,
      "め": 294,
      "も": 295,
      "や": 296,
      "よ": 297,
      "ら": 298,
      "り": 299,
      "れ": 300,
      "ろ": 301,
      "わ": 302,
      "を": 303,
      "ん": 304,
      "ィ": 305,
      "イ": 306,
      "ェ": 307,
      "エ": 308,
      "ォ": 309,
      "カ": 310,
      "シ": 311,
      "ス": 312,
      "チ": 313,
      "ッ": 314,
      "テ": 315,
      "ト": 316,
      "ハ": 317,
      "フ": 318,
      "メ": 319,
      "ャ": 320,
      "ラ": 321,
      "レ": 322,
      "ン": 323,
      "・": 324,
      "ー": 325,
      "七": 326,
      "丈": 327,
      "予": 328,
      "事": 329,
      "亮": 330,
      "今": 331,
      "何": 332,
      "你": 333,
      "侊": 334,
      "侭": 335,
      "侶": 336,
      "俥": 337,
      "俺": 338,
      "倉": 339,
      "充": 340,
      "八": 341,
      "分": 342,
      "前": 343,
      "受": 344,
      "召": 345,
      "哥": 346,
      "大": 347,
      "夫": 348,
      "女": 349,
      "孖": 350,
      "守": 351,
      "定": 352,
      "宿": 353,
      "寃": 354,
      "屋": 355,
      "嶆": 356,
      "引": 357,
      "彼": 358,
      "急": 359,
      "戻": 360,
      "持": 361,
      "挎": 362,
      "探": 363,
      "放": 364,
      "星": 365,
      "椴": 366,
      "構": 367,
      "歍": 368,
      "歐": 369,
      "止": 370,
      "決": 371,
      "涘": 372,
      "澃": 373,
      "物": 374,
      "男": 375,
      "異": 376,
      "瘮": 377,
      "着": 378,
      "矢": 379,
      "禷": 380,
      "稓": 381,
      "穢": 382,
      "穴": 383,
      "篮": 384,
      "紒": 385,
      "良": 386,
      "茅": 387,
      "行": 388,
      "言": 389,
      "試": 390,
      "请": 391,
      "贸": 392,
      "起": 393,
      "跳": 394,
      "転": 395,
      "込": 396,
      "通": 397,
      "連": 398,
      "週": 399,
      "運": 400,
      "部": 401,
      "銆": 402,
      "鍎": 403,
      "鑼": 404,
      "锛": 405,
      "閼": 406,
      "閿": 407,
      "闁": 408,
      "題": 409,
      "飯": 410,
      "飲": 411,
      "首": 412,
      "験": 413,
      "骠": 414,
      "黙": 415,
      "ﶥ": 416,
      "！": 417,
      "？": 418,
      "�": 419,
      "##r": 420,
      "##e": 421,
      "##a": 422,
      "##b": 423,
      "##h": 424,
      "##p": 425,
      "##m": 426,
      "##n": 427,
      "##ᅩ": 428,
      "##ᄂ": 429,
      "##ᅳ": 430,
      "##ᆫ": 431,
      "##u": 432,
      "##l": 433,
      "##t": 434,
      "##d": 435,
      "##s": 436,
      "##i": 437,
      "##ᄇ": 438,
      "##ᅮ": 439,
      "##g": 440,
      "##v": 441,
      "##o": 442,
      "##k": 443,
      "##c": 444,
      "##y": 445,
      "##f": 446,
      "##w": 447,
      "##6": 448,
      "##0": 449,
      "##2": 450,
      "##8": 451,
      "##j": 452,
      "##z": 453,
      "##'": 454,
      "##q": 455,
      "##æ": 456,
      "##7": 457,
      "##4": 458,
      "##9": 459,
      "##3": 460,
      "##…": 461,
      "##\"": 462,
      "##]": 463,
      "##ᄉ": 464,
      "##ᅧ": 465,
      "##ᆻ": 466,
      "##ᄃ": 467,
      "##ᅡ": 468,
      "##ᄀ": 469,
      "##!": 470,
      "##?": 471,
      "##x": 472,
      "##ᄅ": 473,
      "##1": 474,
      "##_": 475,
      "##ᅥ": 476,
      "##ᆯ": 477,
      "##ᄆ": 478,
      "##”": 479,
      "##)": 480,
      "##5": 481,
      "##.": 482,
      "##ᄋ": 483,
      "##ᅵ": 484,
      "##ᄈ": 485,
      "##ᄒ": 486,
      "##ᅣ": 487,
      "##ذ": 488,
      "##ا": 489,
      "##ᅦ": 490,
      "##ᅴ": 491,
      "##,": 492,
      "##\\": 493,
      "##ᅭ": 494,
      "###": 495,
      "##%": 496,
      "##$": 497,
      "##ᆸ": 498,
      "##/": 499,
      "##*": 500,
      "##ᆷ": 501,
      "##<": 502,
      "##ᅬ": 503,
      "##ᄌ": 504,
      "##–": 505,
      "##ᆼ": 506,
      "##♪": 507,
      "##れ": 508,
      "##を": 509,
      "##シ": 510,
      "##ャ": 511,
      "##ラ": 512,
      "##ー": 513,
      "##に": 514,
      "##飲": 515,
      "##ま": 516,
      "##せ": 517,
      "##て": 518,
      "##も": 519,
      "##ら": 520,
      "##お": 521,
      "##う": 522,
      "##ォ": 523,
      "##ト": 524,
      "##連": 525,
      "##戻": 526,
      "##[": 527,
      "##ᆺ": 528,
      "##ᄁ": 529,
      "##ᅢ": 530,
      "##ᆨ": 531,
      "##þ": 532,
      "##(": 533,
      "##ᅨ": 534,
      "##º": 535,
      "##ن": 536,
      "##—": 537,
      "##>": 538,
      "##�": 539,
      "##}": 540,
      "##ᆽ": 541,
      "##ᇀ": 542,
      "##ᆭ": 543,
      "##ᅫ": 544,
      "##ᅪ": 545,
      "##-": 546,
      "##:": 547,
      "##म": 548,
      "##ह": 549,
      "##र": 550,
      "##‘": 551,
      "##{": 552,
      "##ᄐ": 553,
      "##ᇂ": 554,
      "##♫": 555,
      "##ت": 556,
      "##ح": 557,
      "##ر": 558,
      "##ك": 559,
      "##व": 560,
      "##œ": 561,
      "##銆": 562,
      "##侭": 563,
      "##ᄄ": 564,
      "##ᄑ": 565,
      "##ᄏ": 566,
      "##ᆩ": 567,
      "##ᅯ": 568,
      "##っ": 569,
      "##こ": 570,
      "##い": 571,
      "##ي": 572,
      "##د": 573,
      "##ᆹ": 574,
      "##’": 575,
      "##飯": 576,
      "##": 577,
      "##;": 578,
      "##ᅤ": 579,
      "##ᇁ": 580,
      "##ᆮ": 581,
      "##ð": 582,
      "##​": 583,
      "##»": 584,
      "##م": 585,
      "##锛": 586,
      "##¡": 587,
      "##か": 588,
      "##前": 589,
      "##守": 590,
      "##ね": 591,
      "##は": 592,
      "##な": 593,
      "##ん": 594,
      "##の": 595,
      "##週": 596,
      "##予": 597,
      "##定": 598,
      "##ы": 599,
      "##х": 600,
      "##о": 601,
      "##д": 602,
      "##=": 603,
      "##~": 604,
      "##侶": 605,
      "##": 606,
      "##つ": 607,
      "##通": 608,
      "##り": 609,
      "##や": 610,
      "##大": 611,
      "##丈": 612,
      "##夫": 613,
      "##た": 614,
      "##|": 615,
      "##ᆶ": 616,
      "##探": 617,
      "##鑼": 618,
      "##し": 619,
      "##ᅱ": 620,
      "##“": 621,
      "##ف": 622,
      "##س": 623,
      "##@": 624,
      "##決": 625,
      "##着": 626,
      "##く": 627,
      "##女": 628,
      "##穴": 629,
      "##倉": 630,
      "##へ": 631,
      "##放": 632,
      "##込": 633,
      "##け": 634,
      "##°": 635,
      "##ж": 636,
      "##е": 637,
      "##м": 638,
      "##哥": 639,
      "##и": 640,
      "##а": 641,
      "##л": 642,
      "##ᄍ": 643,
      "##ل": 644,
      "##と": 645,
      "##あ": 646,
      "##急": 647,
      "##+": 648,
      "##ﶥ": 649,
      "##ज": 650,
      "##द": 651,
      "##ग": 652,
      "##त": 653,
      "##و": 654,
      "##侊": 655,
      "##紒": 656,
      "##そ": 657,
      "##首": 658,
      "##跳": 659,
      "##事": 660,
      "##わ": 661,
      "##": 662,
      "##ᄎ": 663,
      "##ᅲ": 664,
      "##ᄊ": 665,
      "##構": 666,
      "##め": 667,
      "##ろ": 668,
      "##р": 669,
      "##к": 670,
      "##з": 671,
      "##験": 672,
      "##言": 673,
      "##え": 674,
      "##б": 675,
      "##я": 676,
      "##т": 677,
      "##¿": 678,
      "##題": 679,
      "##щ": 680,
      "##寃": 681,
      "##星": 682,
      "##ß": 683,
      "##": 684,
      "##ث": 685,
      "##у": 686,
      "##ь": 687,
      "##": 688,
      "##矢": 689,
      "##г": 690,
      "##嶆": 691,
      "##瘮": 692,
      "##引": 693,
      "##き": 694,
      "##受": 695,
      "##ع": 696,
      "##ᆾ": 697,
      "##¼": 698,
      "##н": 699,
      "##穢": 700,
      "##さ": 701,
      "##閿": 702,
      "##ッ": 703,
      "##チ": 704,
      "##ン": 705,
      "##с": 706,
      "##в": 707,
      "##歍": 708,
      "##ш": 709,
      "##½": 710,
      "##骠": 711,
      "##你": 712,
      "##¦": 713,
      "##ب": 714,
      "##•": 715,
      "##`": 716,
      "##篮": 717,
      "##च": 718,
      "##छ": 719,
      "##―": 720,
      "##&": 721,
      "##ち": 722,
      "##物": 723,
      "##茅": 724,
      "##خ": 725,
      "##ج": 726,
      "##£": 727,
      "##闁": 728,
      "##挎": 729,
      "##稓": 730,
      "##鍎": 731,
      "##禷": 732,
      "##^": 733,
      "##閼": 734,
      "##ю": 735,
      "##転": 736,
      "##八": 737,
      "##起": 738,
      "##良": 739,
      "##贸": 740,
      "##­": 741,
      "##ᆬ": 742,
      "##ч": 743,
      "##涘": 744,
      "##澃": 745,
      "##ق": 746,
      "##孖": 747,
      "##˜": 748,
      "##³": 749,
      "##男": 750,
      "##黙": 751,
      "##テ": 752,
      "##ィ": 753,
      "##ス": 754,
      "##ه": 755,
      "##俥": 756,
      "##ᅰ": 757,
      "##ई": 758,
      "##す": 759,
      "##ェ": 760,
      "##ハ": 761,
      "##レ": 762,
      "##イ": 763,
      "##エ": 764,
      "##部": 765,
      "##屋": 766,
      "##ة": 767,
      "##歐": 768,
      "##充": 769,
      "##分": 770,
      "##ø": 771,
      "th": 772,
      "##er": 773,
      "##ou": 774,
      "##in": 775,
      "the": 776,
      "##an": 777,
      "you": 778,
      "##at": 779,
      "##on": 780,
      "##ing": 781,
      "##or": 782,
      "to": 783,
      "##es": 784,
      "##ar": 785,
      "##en": 786,
      "an": 787,
      "##ll": 788,
      "##is": 789,
      "##ed": 790,
      "and": 791,
      "##th": 792,
      "##om": 793,
      "##ow": 794,
      "wh": 795,
      "in": 796,
      "##as": 797,
      "it": 798,
      "##re": 799,
      "he": 800,
      "of": 801,
      "##ut": 802,
      "##le": 803,
      "##ic": 804,
      "##ay": 805,
      "##ac": 806,
      "##et": 807,
      "do": 808,
      "##oo": 809,
      "##el": 810,
      "sh": 811,
      "##gh": 812,
      "we": 813,
      "on": 814,
      "no": 815,
      "re": 816,
      "##us": 817,
      "that": 818,
      "st": 819,
      "##al": 820,
      "##it": 821,
      "##ve": 822,
      "is": 823,
      "be": 824,
      "##id": 825,
      "##ere": 826,
      "ha": 827,
      "##im": 828,
      "me": 829,
      "wi": 830,
      "##ke": 831,
      "##am": 832,
      "go": 833,
      "##ld": 834,
      "##ght": 835,
      "what": 836,
      "##ur": 837,
      "##ver": 838,
      "##ad": 839,
      "for": 840,
      "##ight": 841,
      "##ir": 842,
      "##ct": 843,
      "##se": 844,
      "ch": 845,
      "##all": 846,
      "##ome": 847,
      "##ly": 848,
      "##ks": 849,
      "##ent": 850,
      "se": 851,
      "at": 852,
      "##..": 853,
      "li": 854,
      "kn": 855,
      "##ch": 856,
      "##ust": 857,
      "##and": 858,
      "this": 859,
      ".)": 860,
      "with": 861,
      "...": 862,
      "her": 863,
      "##ter": 864,
      "she": 865,
      "##ack": 866,
      "##ro": 867,
      "not": 868,
      "##ie": 869,
      "my": 870,
      "was": 871,
      "know": 872,
      "fr": 873,
      "out": 874,
      "up": 875,
      "so": 876,
      "your": 877,
      "are": 878,
      "have": 879,
      "##ion": 880,
      "##ea": 881,
      "loo": 882,
      "ne": 883,
      "his": 884,
      "##nd": 885,
      "don": 886,
      "##ould": 887,
      "as": 888,
      "but": 889,
      "can": 890,
      "just": 891,
      "##ant": 892,
      "##il": 893,
      "him": 894,
      "##os": 895,
      "##ge": 896,
      "##ard": 897,
      "get": 898,
      "all": 899,
      "they": 900,
      "##pp": 901,
      "ab": 902,
      "##ry": 903,
      "##ri": 904,
      "##--": 905,
      "##king": 906,
      "##ce": 907,
      "##ctor": 908,
      "some": 909,
      "cl": 910,
      "de": 911,
      "##ey": 912,
      "there": 913,
      "##un": 914,
      "doctor": 915,
      "##ess": 916,
      "##out": 917,
      "ta": 918,
      "##art": 919,
      "##ind": 920,
      "ro": 921,
      "##ther": 922,
      "##ra": 923,
      "ll": 924,
      "##op": 925,
      "ma": 926,
      "##thing": 927,
      "su": 928,
      "well": 929,
      "le": 930,
      "int": 931,
      "oh": 932,
      "##rou": 933,
      "##one": 934,
      "##est": 935,
      "##ot": 936,
      "##ck": 937,
      "did": 938,
      "back": 939,
      "##st": 940,
      "al": 941,
      "##ood": 942,
      "like": 943,
      "##ell": 944,
      "here": 945,
      "about": 946,
      "if": 947,
      "##ain": 948,
      "##ally": 949,
      "##ff": 950,
      "ex": 951,
      "##ath": 952,
      "right": 953,
      "from": 954,
      "one": 955,
      "con": 956,
      "bo": 957,
      "##ine": 958,
      "ph": 959,
      "see": 960,
      "##ink": 961,
      "yea": 962,
      "br": 963,
      "##ill": 964,
      "yeah": 965,
      "##ore": 966,
      "want": 967,
      "who": 968,
      "##ol": 969,
      "sp": 970,
      "off": 971,
      "##na": 972,
      "##ick": 973,
      "how": 974,
      "now": 975,
      "wor": 976,
      "sc": 977,
      "##own": 978,
      "##be": 979,
      "com": 980,
      "jo": 981,
      "ok": 982,
      "##ers": 983,
      "any": 984,
      "gu": 985,
      "mar": 986,
      "##ul": 987,
      "##ai": 988,
      "##ach": 989,
      "got": 990,
      "lo": 991,
      "##ist": 992,
      "car": 993,
      "ve": 994,
      "##ice": 995,
      "##ate": 996,
      "wal": 997,
      "##um": 998,
      "##ich": 999,
      "##way": 1000,
      "pl": 1001,
      "##iss": 1002,
      "##ig": 1003,
      "##ab": 1004,
      "will": 1005,
      "##ide": 1006,
      "think": 1007,
      "man": 1008,
      "##end": 1009,
      "##ast": 1010,
      "hou": 1011,
      "over": 1012,
      "tim": 1013,
      "down": 1014,
      "sa": 1015,
      "look": 1016,
      "ever": 1017,
      "##ip": 1018,
      "##ep": 1019,
      "them": 1020,
      "ag": 1021,
      "looks": 1022,
      "en": 1023,
      "then": 1024,
      "##aus": 1025,
      "us": 1026,
      "##ace": 1027,
      "or": 1028,
      "ar": 1029,
      "gr": 1030,
      "okay": 1031,
      "into": 1032,
      ".]": 1033,
      "good": 1034,
      "pr": 1035,
      "##ves": 1036,
      "##----": 1037,
      "gi": 1038,
      "##itt": 1039,
      "would": 1040,
      "##urn": 1041,
      "##ong": 1042,
      "why": 1043,
      "going": 1044,
      "am": 1045,
      "bl": 1046,
      "come": 1047,
      "house": 1048,
      "##ven": 1049,
      "##oe": 1050,
      "cut": 1051,
      "by": 1052,
      "pro": 1053,
      "co": 1054,
      "##dy": 1055,
      "say": 1056,
      "than": 1057,
      "tr": 1058,
      "time": 1059,
      "when": 1060,
      "##ation": 1061,
      "mo": 1062,
      "let": 1063,
      "##ory": 1064,
      "room": 1065,
      "bu": 1066,
      "##em": 1067,
      "da": 1068,
      "hand": 1069,
      "##ble": 1070,
      "fl": 1071,
      "fe": 1072,
      "##ame": 1073,
      "##ap": 1074,
      "##round": 1075,
      "##ase": 1076,
      "qu": 1077,
      "need": 1078,
      "##ark": 1079,
      "un": 1080,
      "could": 1081,
      "##ass": 1082,
      "##ous": 1083,
      "ho": 1084,
      "hey": 1085,
      "door": 1086,
      "##onna": 1087,
      "##mm": 1088,
      "every": 1089,
      "##ause": 1090,
      "where": 1091,
      "ver": 1092,
      "gonna": 1093,
      "mean": 1094,
      "##kes": 1095,
      "sm": 1096,
      "yes": 1097,
      "ad": 1098,
      "tw": 1099,
      "lor": 1100,
      "thing": 1101,
      "tell": 1102,
      "cou": 1103,
      "dr": 1104,
      "lu": 1105,
      "##ear": 1106,
      "turn": 1107,
      "really": 1108,
      "tal": 1109,
      "##ara": 1110,
      "##enn": 1111,
      "were": 1112,
      "been": 1113,
      "has": 1114,
      "guy": 1115,
      "##fe": 1116,
      "does": 1117,
      "mon": 1118,
      "wa": 1119,
      "op": 1120,
      "day": 1121,
      "##ber": 1122,
      "lea": 1123,
      "something": 1124,
      "uh": 1125,
      "too": 1126,
      "##ley": 1127,
      "##ort": 1128,
      "##ue": 1129,
      "way": 1130,
      "##ving": 1131,
      "##ound": 1132,
      "##son": 1133,
      "should": 1134,
      "di": 1135,
      "gre": 1136,
      "boo": 1137,
      "mr": 1138,
      "had": 1139,
      "##ather": 1140,
      "again": 1141,
      "##elai": 1142,
      "lorelai": 1143,
      "didn": 1144,
      "may": 1145,
      "##ag": 1146,
      "##ud": 1147,
      "take": 1148,
      "bec": 1149,
      "happ": 1150,
      "walks": 1151,
      "##ia": 1152,
      "##bs": 1153,
      "phoe": 1154,
      "la": 1155,
      "##atch": 1156,
      "phoebe": 1157,
      "el": 1158,
      "ke": 1159,
      "other": 1160,
      "##ting": 1161,
      "around": 1162,
      "pe": 1163,
      "start": 1164,
      "our": 1165,
      "more": 1166,
      "away": 1167,
      "hel": 1168,
      "head": 1169,
      "call": 1170,
      "##ull": 1171,
      "##ure": 1172,
      "##ica": 1173,
      "##ond": 1174,
      "jack": 1175,
      "cr": 1176,
      "##ang": 1177,
      "two": 1178,
      "##ft": 1179,
      "##ittle": 1180,
      "po": 1181,
      "open": 1182,
      "little": 1183,
      "put": 1184,
      "ang": 1185,
      "##ive": 1186,
      "##sel": 1187,
      "##ish": 1188,
      "sl": 1189,
      "##ect": 1190,
      "cont": 1191,
      "sor": 1192,
      "find": 1193,
      "##ost": 1194,
      "mich": 1195,
      "make": 1196,
      "still": 1197,
      "##act": 1198,
      "rory": 1199,
      "because": 1200,
      "sam": 1201,
      "em": 1202,
      "##ael": 1203,
      "bar": 1204,
      "sw": 1205,
      "##side": 1206,
      "sorry": 1207,
      "##ose": 1208,
      "help": 1209,
      "night": 1210,
      "##ree": 1211,
      "wait": 1212,
      "##oss": 1213,
      "af": 1214,
      "##ile": 1215,
      "##ely": 1216,
      "##ment": 1217,
      "stand": 1218,
      "##rough": 1219,
      "stop": 1220,
      "##ies": 1221,
      "thou": 1222,
      "through": 1223,
      "##ity": 1224,
      "never": 1225,
      "##wn": 1226,
      "##ash": 1227,
      "##ney": 1228,
      "##irst": 1229,
      "michael": 1230,
      "fo": 1231,
      "bet": 1232,
      "##ins": 1233,
      "clark": 1234,
      "##iles": 1235,
      "##age": 1236,
      "run": 1237,
      "##ty": 1238,
      "##ite": 1239,
      "app": 1240,
      "##ane": 1241,
      "##nder": 1242,
      "##by": 1243,
      "joey": 1244,
      "##self": 1245,
      "##irl": 1246,
      "##ance": 1247,
      "##int": 1248,
      "peop": 1249,
      "##ene": 1250,
      "people": 1251,
      "cam": 1252,
      "##sh": 1253,
      "##ady": 1254,
      "only": 1255,
      "turns": 1256,
      "##ward": 1257,
      "te": 1258,
      "sure": 1259,
      "##ak": 1260,
      "happen": 1261,
      "try": 1262,
      "pre": 1263,
      "very": 1264,
      "even": 1265,
      "##air": 1266,
      "hu": 1267,
      "hold": 1268,
      "##--------": 1269,
      "angel": 1270,
      "dean": 1271,
      "under": 1272,
      "their": 1273,
      "sy": 1274,
      "##its": 1275,
      "pip": 1276,
      "cor": 1277,
      "girl": 1278,
      "##ily": 1279,
      "##ans": 1280,
      "gl": 1281,
      "comp": 1282,
      "doing": 1283,
      "##ence": 1284,
      "work": 1285,
      "phone": 1286,
      "##igh": 1287,
      "##fore": 1288,
      "##les": 1289,
      "##ious": 1290,
      "##ows": 1291,
      "new": 1292,
      "##ool": 1293,
      "##ugh": 1294,
      "ste": 1295,
      "before": 1296,
      "mom": 1297,
      "sec": 1298,
      "bre": 1299,
      "##bo": 1300,
      "mu": 1301,
      "act": 1302,
      "booth": 1303,
      "##gg": 1304,
      "said": 1305,
      "##ters": 1306,
      "looking": 1307,
      "che": 1308,
      "maybe": 1309,
      "##our": 1310,
      "piper": 1311,
      "##pt": 1312,
      "##ade": 1313,
      "ple": 1314,
      "rem": 1315,
      "##per": 1316,
      "##ffy": 1317,
      "after": 1318,
      "##ning": 1319,
      "boy": 1320,
      "wr": 1321,
      "mer": 1322,
      "thought": 1323,
      "##ps": 1324,
      ".\"": 1325,
      "ac": 1326,
      "dis": 1327,
      "##itch": 1328,
      "talk": 1329,
      "##ler": 1330,
      "##ner": 1331,
      "buffy": 1332,
      "watch": 1333,
      "per": 1334,
      "part": 1335,
      "##uck": 1336,
      "##ason": 1337,
      "##ton": 1338,
      "bel": 1339,
      "first": 1340,
      "doesn": 1341,
      "anything": 1342,
      "res": 1343,
      "--": 1344,
      "feel": 1345,
      "inter": 1346,
      "##man": 1347,
      "##te": 1348,
      "im": 1349,
      "##ict": 1350,
      "##ana": 1351,
      "fri": 1352,
      "love": 1353,
      "##iz": 1354,
      "much": 1355,
      "brenn": 1356,
      "##ears": 1357,
      "brennan": 1358,
      "##ock": 1359,
      "##ord": 1360,
      "##ater": 1361,
      "friend": 1362,
      "takes": 1363,
      "war": 1364,
      "beh": 1365,
      "##xt": 1366,
      "ey": 1367,
      "hell": 1368,
      "keep": 1369,
      "##qu": 1370,
      "great": 1371,
      "long": 1372,
      "give": 1373,
      "thank": 1374,
      "nothing": 1375,
      "ton": 1376,
      "##yle": 1377,
      "des": 1378,
      "please": 1379,
      "##ike": 1380,
      "##ise": 1381,
      "scene": 1382,
      "##ci": 1383,
      "):": 1384,
      "##ith": 1385,
      "##other": 1386,
      "face": 1387,
      "rach": 1388,
      "wom": 1389,
      "last": 1390,
      "##pl": 1391,
      "ap": 1392,
      "pull": 1393,
      "life": 1394,
      "god": 1395,
      "end": 1396,
      "##ph": 1397,
      "stu": 1398,
      "guys": 1399,
      "hands": 1400,
      "which": 1401,
      "jim": 1402,
      "##eld": 1403,
      "##ook": 1404,
      "##ont": 1405,
      "##ush": 1406,
      "sara": 1407,
      "behind": 1408,
      "dam": 1409,
      "rachel": 1410,
      "another": 1411,
      "these": 1412,
      "griss": 1413,
      "grissom": 1414,
      "mat": 1415,
      "gets": 1416,
      "##ough": 1417,
      "##ub": 1418,
      "list": 1419,
      "mor": 1420,
      "ben": 1421,
      "##ved": 1422,
      "##ah": 1423,
      "play": 1424,
      "##yan": 1425,
      "##ian": 1426,
      "##ings": 1427,
      "kind": 1428,
      "hear": 1429,
      "tri": 1430,
      "##ss": 1431,
      "par": 1432,
      "kid": 1433,
      "goes": 1434,
      "##ier": 1435,
      "must": 1436,
      "leave": 1437,
      "ah": 1438,
      "##ful": 1439,
      "next": 1440,
      "##ina": 1441,
      "##body": 1442,
      "gra": 1443,
      "ser": 1444,
      "##atherine": 1445,
      "miss": 1446,
      "ryan": 1447,
      "pai": 1448,
      "home": 1449,
      "str": 1450,
      "##gan": 1451,
      "bed": 1452,
      "paige": 1453,
      "##ms": 1454,
      "id": 1455,
      "##ated": 1456,
      "##ny": 1457,
      "sur": 1458,
      "cle": 1459,
      "##ually": 1460,
      "er": 1461,
      "veron": 1462,
      "veronica": 1463,
      "bro": 1464,
      "##ris": 1465,
      "luke": 1466,
      "##ild": 1467,
      "char": 1468,
      "things": 1469,
      "real": 1470,
      "laugh": 1471,
      "##ott": 1472,
      "better": 1473,
      "ext": 1474,
      "belie": 1475,
      "fin": 1476,
      "walk": 1477,
      "##my": 1478,
      "big": 1479,
      "ca": 1480,
      "att": 1481,
      "min": 1482,
      "cour": 1483,
      "old": 1484,
      "scre": 1485,
      "someone": 1486,
      "##anc": 1487,
      "told": 1488,
      "##day": 1489,
      "##athan": 1490,
      "talking": 1491,
      "sch": 1492,
      "syd": 1493,
      "front": 1494,
      "dad": 1495,
      "##ee": 1496,
      "##iv": 1497,
      "sk": 1498,
      "everything": 1499,
      "woman": 1500,
      "clos": 1501,
      "ev": 1502,
      "jam": 1503,
      "hur": 1504,
      "comes": 1505,
      "those": 1506,
      "office": 1507,
      "##ary": 1508,
      "um": 1509,
      "point": 1510,
      "table": 1511,
      "##ents": 1512,
      "##der": 1513,
      "starts": 1514,
      "fine": 1515,
      "ra": 1516,
      "lot": 1517,
      "##orm": 1518,
      "show": 1519,
      "ear": 1520,
      "##lin": 1521,
      "##ts": 1522,
      "##ds": 1523,
      "being": 1524,
      "sydney": 1525,
      "##oice": 1526,
      "tra": 1527,
      "##ens": 1528,
      "##ways": 1529,
      "place": 1530,
      "##ating": 1531,
      "ask": 1532,
      "##itting": 1533,
      "ted": 1534,
      "trying": 1535,
      "##og": 1536,
      "catherine": 1537,
      "##ire": 1538,
      "##ions": 1539,
      "isn": 1540,
      "three": 1541,
      "##enny": 1542,
      "both": 1543,
      "ross": 1544,
      "inside": 1545,
      "believe": 1546,
      "##mon": 1547,
      "bad": 1548,
      "##oc": 1549,
      "outside": 1550,
      "saw": 1551,
      "camer": 1552,
      "cra": 1553,
      "thr": 1554,
      "toward": 1555,
      "##ew": 1556,
      "care": 1557,
      "rob": 1558,
      "left": 1559,
      "##dd": 1560,
      "##bbs": 1561,
      "leaves": 1562,
      "imp": 1563,
      "##are": 1564,
      "won": 1565,
      "dri": 1566,
      "sir": 1567,
      "daw": 1568,
      "always": 1569,
      "made": 1570,
      "##erson": 1571,
      "found": 1572,
      "##ign": 1573,
      "while": 1574,
      "bab": 1575,
      "might": 1576,
      "getting": 1577,
      "##icks": 1578,
      "##ena": 1579,
      "supp": 1580,
      "##een": 1581,
      "##tain": 1582,
      "own": 1583,
      "dawson": 1584,
      "luc": 1585,
      "stay": 1586,
      "opens": 1587,
      "gibbs": 1588,
      "listen": 1589,
      "##ake": 1590,
      "bri": 1591,
      "thanks": 1592,
      "emm": 1593,
      "side": 1594,
      "fun": 1595,
      "rec": 1596,
      "hall": 1597,
      "wall": 1598,
      "flash": 1599,
      "##able": 1600,
      "##ever": 1601,
      "##ress": 1602,
      "foll": 1603,
      "##cus": 1604,
      "##ix": 1605,
      "eyes": 1606,
      "sees": 1607,
      "chand": 1608,
      "coun": 1609,
      "actually": 1610,
      "happened": 1611,
      "coming": 1612,
      "##pe": 1613,
      "##ank": 1614,
      "pat": 1615,
      "dan": 1616,
      "##ail": 1617,
      "##ander": 1618,
      "done": 1619,
      "puts": 1620,
      "nick": 1621,
      "##ooke": 1622,
      "jul": 1623,
      "##ope": 1624,
      "monica": 1625,
      "sound": 1626,
      "chandler": 1627,
      "##ower": 1628,
      "hi": 1629,
      "rich": 1630,
      "smiles": 1631,
      "wrong": 1632,
      "jason": 1633,
      "##ple": 1634,
      "##hn": 1635,
      "kate": 1636,
      "blood": 1637,
      "##ross": 1638,
      "sitting": 1639,
      "thin": 1640,
      "nice": 1641,
      "ass": 1642,
      "guess": 1643,
      "marsh": 1644,
      "##gether": 1645,
      "##anna": 1646,
      "wanted": 1647,
      "remem": 1648,
      "tom": 1649,
      "second": 1650,
      "together": 1651,
      "pret": 1652,
      "light": 1653,
      "lex": 1654,
      "mike": 1655,
      "##ets": 1656,
      "john": 1657,
      "pac": 1658,
      "carol": 1659,
      "school": 1660,
      "course": 1661,
      "hard": 1662,
      "##ams": 1663,
      "seth": 1664,
      "same": 1665,
      "##ison": 1666,
      "flo": 1667,
      "##wen": 1668,
      "name": 1669,
      "leo": 1670,
      "else": 1671,
      "fall": 1672,
      "step": 1673,
      "years": 1674,
      "read": 1675,
      "brooke": 1676,
      "##iver": 1677,
      "har": 1678,
      "underst": 1679,
      "##ange": 1680,
      "##if": 1681,
      "##gins": 1682,
      "comm": 1683,
      "remember": 1684,
      "amy": 1685,
      "?!": 1686,
      "star": 1687,
      "##gs": 1688,
      "enough": 1689,
      "##eldon": 1690,
      "sheldon": 1691,
      "pulls": 1692,
      "mrs": 1693,
      "pass": 1694,
      "huh": 1695,
      "cre": 1696,
      "##loe": 1697,
      "##ta": 1698,
      "##andy": 1699,
      "dra": 1700,
      "##ates": 1701,
      "##sc": 1702,
      "father": 1703,
      "cap": 1704,
      "wasn": 1705,
      "voice": 1706,
      "##ical": 1707,
      "##ru": 1708,
      "mind": 1709,
      "warr": 1710,
      "bus": 1711,
      "##lex": 1712,
      "fam": 1713,
      "##av": 1714,
      "##ying": 1715,
      "minut": 1716,
      "wee": 1717,
      "contin": 1718,
      "kiss": 1719,
      "mou": 1720,
      "everyone": 1721,
      "sits": 1722,
      "##----------------": 1723,
      "dav": 1724,
      "elena": 1725,
      "understand": 1726,
      "##br": 1727,
      "stands": 1728,
      "##ger": 1729,
      "emma": 1730,
      "leon": 1731,
      "max": 1732,
      "##room": 1733,
      "##ne": 1734,
      "move": 1735,
      "body": 1736,
      "sha": 1737,
      "##ince": 1738,
      "plan": 1739,
      "pol": 1740,
      "lucas": 1741,
      "hon": 1742,
      "##ught": 1743,
      "baby": 1744,
      "jamie": 1745,
      "tony": 1746,
      "##so": 1747,
      "meet": 1748,
      "enters": 1749,
      "mother": 1750,
      "##zz": 1751,
      "nathan": 1752,
      "dw": 1753,
      "rest": 1754,
      "chloe": 1755,
      "each": 1756,
      "##let": 1757,
      "##sw": 1758,
      "floor": 1759,
      "summ": 1760,
      "damon": 1761,
      "inv": 1762,
      "##ible": 1763,
      "person": 1764,
      "conf": 1765,
      "break": 1766,
      "swe": 1767,
      "##artment": 1768,
      "##ling": 1769,
      "high": 1770,
      "ter": 1771,
      "world": 1772,
      "##ator": 1773,
      "leonard": 1774,
      "##pect": 1775,
      "emily": 1776,
      "prue": 1777,
      "sn": 1778,
      "pacey": 1779,
      "richard": 1780,
      "came": 1781,
      "wind": 1782,
      "best": 1783,
      "mas": 1784,
      "dwight": 1785,
      "##pped": 1786,
      "##ult": 1787,
      "##cer": 1788,
      "chr": 1789,
      "haley": 1790,
      "alex": 1791,
      "marshall": 1792,
      "pet": 1793,
      "walking": 1794,
      "##unch": 1795,
      "son": 1796,
      "ty": 1797,
      "##io": 1798,
      "dec": 1799,
      "quick": 1800,
      "aw": 1801,
      "sher": 1802,
      "pres": 1803,
      "willow": 1804,
      "rel": 1805,
      "spea": 1806,
      "contro": 1807,
      "##red": 1808,
      "##ayl": 1809,
      "acc": 1810,
      "wouldn": 1811,
      "makes": 1812,
      "met": 1813,
      "##issa": 1814,
      "sigh": 1815,
      "##ably": 1816,
      "##right": 1817,
      "guard": 1818,
      "##ffer": 1819,
      "answ": 1820,
      "jen": 1821,
      "##ret": 1822,
      "##airs": 1823,
      "unt": 1824,
      "whole": 1825,
      "runs": 1826,
      "cause": 1827,
      "##wh": 1828,
      "##iff": 1829,
      "sign": 1830,
      "##ready": 1831,
      "mc": 1832,
      "standing": 1833,
      "quest": 1834,
      "chuck": 1835,
      "already": 1836,
      "coll": 1837,
      "hum": 1838,
      "##amp": 1839,
      "hang": 1840,
      "merlin": 1841,
      "##leep": 1842,
      "forg": 1843,
      "sit": 1844,
      "heard": 1845,
      "idea": 1846,
      "pretty": 1847,
      "ga": 1848,
      "##ookie": 1849,
      "dar": 1850,
      "lana": 1851,
      "ge": 1852,
      "##row": 1853,
      "reg": 1854,
      "lab": 1855,
      "stops": 1856,
      "##vin": 1857,
      "against": 1858,
      "##vel": 1859,
      "set": 1860,
      "##ction": 1861,
      "dro": 1862,
      "wanna": 1863,
      "chase": 1864,
      "expl": 1865,
      "few": 1866,
      "check": 1867,
      "laughs": 1868,
      "use": 1869,
      "yet": 1870,
      "arm": 1871,
      "##aches": 1872,
      "mag": 1873,
      "without": 1874,
      "angela": 1875,
      "bill": 1876,
      "went": 1877,
      "vict": 1878,
      "far": 1879,
      "mus": 1880,
      "##co": 1881,
      "men": 1882,
      "warrick": 1883,
      "va": 1884,
      "fight": 1885,
      "##ax": 1886,
      "seen": 1887,
      "proble": 1888,
      "##eman": 1889,
      "prob": 1890,
      "summer": 1891,
      "exact": 1892,
      "mouth": 1893,
      "##ead": 1894,
      "din": 1895,
      "clear": 1896,
      "ret": 1897,
      "##ried": 1898,
      "bit": 1899,
      "ed": 1900,
      "until": 1901,
      "gone": 1902,
      "its": 1903,
      "sookie": 1904,
      "power": 1905,
      "lead": 1906,
      "arth": 1907,
      "##acks": 1908,
      "moment": 1909,
      "##cks": 1910,
      "family": 1911,
      "once": 1912,
      "arthur": 1913,
      "##ik": 1914,
      "xander": 1915,
      "##ial": 1916,
      "##lson": 1917,
      "heart": 1918,
      "cell": 1919,
      "stuff": 1920,
      "ready": 1921,
      "hello": 1922,
      "alright": 1923,
      "foreman": 1924,
      "stef": 1925,
      "pain": 1926,
      "foyle": 1927,
      "holds": 1928,
      "##gin": 1929,
      "hour": 1930,
      "##ib": 1931,
      "sighs": 1932,
      "christ": 1933,
      "close": 1934,
      "grabs": 1935,
      "bag": 1936,
      "penny": 1937,
      "##iously": 1938,
      "friends": 1939,
      "##ird": 1940,
      "bon": 1941,
      "stefan": 1942,
      "demon": 1943,
      "control": 1944,
      "job": 1945,
      "##ken": 1946,
      "rep": 1947,
      "past": 1948,
      "##osed": 1949,
      "most": 1950,
      "spe": 1951,
      "black": 1952,
      "follow": 1953,
      "**": 1954,
      "##cept": 1955,
      "tre": 1956,
      "camera": 1957,
      "##back": 1958,
      "hal": 1959,
      "marissa": 1960,
      "having": 1961,
      "near": 1962,
      "ob": 1963,
      "##ues": 1964,
      "money": 1965,
      "##ump": 1966,
      "dale": 1967,
      "bur": 1968,
      "je": 1969,
      "lily": 1970,
      "knew": 1971,
      "mary": 1972,
      "##ient": 1973,
      "probably": 1974,
      "yourself": 1975,
      "deal": 1976,
      "sus": 1977,
      "sim": 1978,
      "##ned": 1979,
      "top": 1980,
      "pap": 1981,
      "book": 1982,
      "##ister": 1983,
      "hot": 1984,
      "small": 1985,
      "logan": 1986,
      "pey": 1987,
      "exactly": 1988,
      "##less": 1989,
      "##de": 1990,
      "happy": 1991,
      "box": 1992,
      "peyton": 1993,
      "pam": 1994,
      "alone": 1995,
      "haven": 1996,
      "andy": 1997,
      "towards": 1998,
      "air": 1999,
      "##orge": 2000,
      "used": 2001,
      "##nie": 2002,
      "ru": 2003,
      "offic": 2004,
      "nods": 2005,
      "##ital": 2006,
      "youn": 2007,
      "hmm": 2008,
      "brass": 2009,
      "jane": 2010,
      "child": 2011,
      "hope": 2012,
      "##yer": 2013,
      "kyle": 2014,
      "##vie": 2015,
      "appro": 2016,
      "loc": 2017,
      "wear": 2018,
      "hod": 2019,
      "four": 2020,
      "working": 2021,
      "push": 2022,
      "today": 2023,
      "ground": 2024,
      "inc": 2025,
      "##cial": 2026,
      "bring": 2027,
      "year": 2028,
      "red": 2029,
      "bra": 2030,
      "##lly": 2031,
      "fig": 2032,
      "bob": 2033,
      "thinking": 2034,
      "morning": 2035,
      "since": 2036,
      "saying": 2037,
      "cas": 2038,
      "##iet": 2039,
      "liz": 2040,
      "##led": 2041,
      "gotta": 2042,
      "ele": 2043,
      "##ition": 2044,
      "anyone": 2045,
      "taking": 2046,
      "##oun": 2047,
      "stre": 2048,
      "cry": 2049,
      "mered": 2050,
      "meredith": 2051,
      "differ": 2052,
      "##ither": 2053,
      "tonight": 2054,
      "water": 2055,
      "sandy": 2056,
      "##ense": 2057,
      "also": 2058,
      "later": 2059,
      "enter": 2060,
      "called": 2061,
      "##where": 2062,
      "cur": 2063,
      "barney": 2064,
      "##az": 2065,
      "took": 2066,
      "##app": 2067,
      "##ding": 2068,
      "picks": 2069,
      "shut": 2070,
      "##ied": 2071,
      "pict": 2072,
      "wilson": 2073,
      "holding": 2074,
      "##up": 2075,
      "lled": 2076,
      "##ons": 2077,
      "george": 2078,
      "##ief": 2079,
      "flashback": 2080,
      "matter": 2081,
      "means": 2082,
      "apartment": 2083,
      "pick": 2084,
      "kl": 2085,
      "party": 2086,
      "gwen": 2087,
      "glass": 2088,
      "##ma": 2089,
      "white": 2090,
      "keith": 2091,
      "david": 2092,
      "police": 2093,
      "brother": 2094,
      "young": 2095,
      "whatever": 2096,
      "##more": 2097,
      "##aces": 2098,
      "problem": 2099,
      "case": 2100,
      "ago": 2101,
      "##to": 2102,
      "cart": 2103,
      "five": 2104,
      "hor": 2105,
      "prom": 2106,
      "##ughn": 2107,
      "says": 2108,
      "sarah": 2109,
      "vaughn": 2110,
      "lock": 2111,
      "##oy": 2112,
      "jimmy": 2113,
      "cal": 2114,
      "robin": 2115,
      "##ides": 2116,
      "##ently": 2117,
      "##ures": 2118,
      "sil": 2119,
      "supposed": 2120,
      "making": 2121,
      "##ations": 2122,
      "def": 2123,
      "cover": 2124,
      "##inc": 2125,
      "sleep": 2126,
      "stan": 2127,
      "scott": 2128,
      "jon": 2129,
      "many": 2130,
      "soon": 2131,
      "##itor": 2132,
      "eas": 2133,
      "num": 2134,
      "desk": 2135,
      "dep": 2136,
      "window": 2137,
      "cons": 2138,
      "answer": 2139,
      "##ness": 2140,
      "gives": 2141,
      "##ically": 2142,
      "mess": 2143,
      "##att": 2144,
      "park": 2145,
      "waiting": 2146,
      "magg": 2147,
      "##ouch": 2148,
      "class": 2149,
      "charl": 2150,
      "greg": 2151,
      "##dden": 2152,
      "##onder": 2153,
      "ash": 2154,
      "wood": 2155,
      "die": 2156,
      "sudden": 2157,
      "klaus": 2158,
      "pie": 2159,
      "breath": 2160,
      "steps": 2161,
      "##ips": 2162,
      "giles": 2163,
      "hos": 2164,
      "inst": 2165,
      "##uth": 2166,
      "dere": 2167,
      "ent": 2168,
      "across": 2169,
      "##ately": 2170,
      "det": 2171,
      "free": 2172,
      "##ime": 2173,
      "himself": 2174,
      "##tha": 2175,
      "wants": 2176,
      "##oot": 2177,
      "##pping": 2178,
      "##ude": 2179,
      "##ys": 2180,
      "ian": 2181,
      "gen": 2182,
      "med": 2183,
      "ins": 2184,
      "bell": 2185,
      "van": 2186,
      "##fri": 2187,
      "couldn": 2188,
      "##ises": 2189,
      "hair": 2190,
      "full": 2191,
      "trust": 2192,
      "cent": 2193,
      "reason": 2194,
      "##als": 2195,
      "maggie": 2196,
      "mil": 2197,
      "points": 2198,
      "derek": 2199,
      "slow": 2200,
      "trans": 2201,
      "living": 2202,
      "##ize": 2203,
      "##aps": 2204,
      "lady": 2205,
      "hosp": 2206,
      "sex": 2207,
      "poss": 2208,
      "build": 2209,
      "mel": 2210,
      "master": 2211,
      "dist": 2212,
      "wonder": 2213,
      "moves": 2214,
      "add": 2215,
      "hospital": 2216,
      "##00": 2217,
      "lar": 2218,
      "##iness": 2219,
      "mad": 2220,
      "##olog": 2221,
      "##ention": 2222,
      "oo": 2223,
      "fi": 2224,
      "dress": 2225,
      "myself": 2226,
      "hen": 2227,
      "running": 2228,
      "grand": 2229,
      "half": 2230,
      "live": 2231,
      "##idence": 2232,
      "test": 2233,
      "col": 2234,
      "hodgins": 2235,
      "##orrow": 2236,
      "betw": 2237,
      "dire": 2238,
      "##form": 2239,
      "between": 2240,
      "six": 2241,
      "##fect": 2242,
      "week": 2243,
      "howard": 2244,
      "surp": 2245,
      "##ette": 2246,
      "excus": 2247,
      "death": 2248,
      "##bb": 2249,
      "along": 2250,
      "lost": 2251,
      "wow": 2252,
      "del": 2253,
      "chris": 2254,
      "phot": 2255,
      "rose": 2256,
      "luck": 2257,
      "music": 2258,
      "chance": 2259,
      "##ared": 2260,
      "question": 2261,
      "?\"": 2262,
      "dou": 2263,
      "stra": 2264,
      "##ual": 2265,
      "sing": 2266,
      "rad": 2267,
      "watching": 2268,
      "##ident": 2269,
      "kitch": 2270,
      "##cy": 2271,
      "touch": 2272,
      "couple": 2273,
      "dre": 2274,
      "dark": 2275,
      "fact": 2276,
      "key": 2277,
      "kids": 2278,
      "kirst": 2279,
      "##friend": 2280,
      "return": 2281,
      "fre": 2282,
      "bas": 2283,
      "caroline": 2284,
      "hurt": 2285,
      "ind": 2286,
      "mark": 2287,
      "late": 2288,
      "eye": 2289,
      "ol": 2290,
      "worry": 2291,
      "tard": 2292,
      "falls": 2293,
      "##gr": 2294,
      "true": 2295,
      "land": 2296,
      "##idge": 2297,
      "##idd": 2298,
      "cud": 2299,
      "news": 2300,
      "tara": 2301,
      "prot": 2302,
      "excuse": 2303,
      "abby": 2304,
      "kitchen": 2305,
      "dest": 2306,
      "tardis": 2307,
      "coff": 2308,
      "sal": 2309,
      "pa": 2310,
      "town": 2311,
      "##iling": 2312,
      "cool": 2313,
      "##ughter": 2314,
      "##zy": 2315,
      "ck": 2316,
      "least": 2317,
      "##cc": 2318,
      "street": 2319,
      "kirsten": 2320,
      "ring": 2321,
      "##orn": 2322,
      "win": 2323,
      "hun": 2324,
      "##vers": 2325,
      "count": 2326,
      "vis": 2327,
      "comput": 2328,
      "prof": 2329,
      "mill": 2330,
      "interest": 2331,
      "change": 2332,
      "days": 2333,
      "gas": 2334,
      "suddenly": 2335,
      "bobby": 2336,
      "paper": 2337,
      "different": 2338,
      "clara": 2339,
      "sun": 2340,
      "henry": 2341,
      "##most": 2342,
      "girls": 2343,
      "##ices": 2344,
      "barb": 2345,
      "ball": 2346,
      "##irt": 2347,
      "rom": 2348,
      "ner": 2349,
      "##sy": 2350,
      "chang": 2351,
      "gar": 2352,
      "cuddy": 2353,
      "##gee": 2354,
      "wes": 2355,
      "knows": 2356,
      "martha": 2357,
      "month": 2358,
      "bott": 2359,
      "minute": 2360,
      "##fer": 2361,
      "wife": 2362,
      "##erg": 2363,
      "such": 2364,
      "seems": 2365,
      "##ats": 2366,
      "almost": 2367,
      "though": 2368,
      "##ject": 2369,
      "##bert": 2370,
      "mach": 2371,
      "kar": 2372,
      "word": 2373,
      "hallway": 2374,
      "continues": 2375,
      "##ug": 2376,
      "closes": 2377,
      "pay": 2378,
      "lind": 2379,
      "mcgee": 2380,
      "playing": 2381,
      "captain": 2382,
      "julie": 2383,
      "##ics": 2384,
      "wish": 2385,
      "sounds": 2386,
      "##ball": 2387,
      "brig": 2388,
      "either": 2389,
      "rder": 2390,
      "king": 2391,
      "arri": 2392,
      "##land": 2393,
      "lou": 2394,
      "bea": 2395,
      "chair": 2396,
      "game": 2397,
      "##ors": 2398,
      "mist": 2399,
      "fing": 2400,
      "law": 2401,
      "mm": 2402,
      "story": 2403,
      "screen": 2404,
      "pri": 2405,
      "aren": 2406,
      "unc": 2407,
      "business": 2408,
      "##anger": 2409,
      "card": 2410,
      "date": 2411,
      "ell": 2412,
      "cartman": 2413,
      "tries": 2414,
      "clo": 2415,
      "##els": 2416,
      "leaving": 2417,
      "tomorrow": 2418,
      "drink": 2419,
      "lis": 2420,
      "lois": 2421,
      "heads": 2422,
      "onto": 2423,
      "watches": 2424,
      "cop": 2425,
      "computer": 2426,
      "rebe": 2427,
      "perfect": 2428,
      "vamp": 2429,
      "catch": 2430,
      "disapp": 2431,
      "finish": 2432,
      "jess": 2433,
      "minutes": 2434,
      "agent": 2435,
      "##ired": 2436,
      "number": 2437,
      "##ron": 2438,
      "stud": 2439,
      "eric": 2440,
      "##ines": 2441,
      "##lock": 2442,
      "squ": 2443,
      "boys": 2444,
      "sub": 2445,
      "dev": 2446,
      "cole": 2447,
      "gave": 2448,
      "som": 2449,
      "anyway": 2450,
      "forward": 2451,
      "quite": 2452,
      "eng": 2453,
      "brian": 2454,
      "sort": 2455,
      "mem": 2456,
      "crow": 2457,
      "cast": 2458,
      "coffee": 2459,
      "seem": 2460,
      "##unk": 2461,
      "quiet": 2462,
      "sto": 2463,
      "human": 2464,
      "hours": 2465,
      "charlie": 2466,
      "times": 2467,
      "spike": 2468,
      "picture": 2469,
      "line": 2470,
      "mot": 2471,
      "##ces": 2472,
      "foot": 2473,
      "##ited": 2474,
      "ri": 2475,
      "##gn": 2476,
      "brigad": 2477,
      "paris": 2478,
      "##la": 2479,
      "whoa": 2480,
      "brigadier": 2481,
      "officer": 2482,
      "sou": 2483,
      "present": 2484,
      "anna": 2485,
      "taub": 2486,
      "somebody": 2487,
      "##ills": 2488,
      "##key": 2489,
      "roll": 2490,
      "##pid": 2491,
      "##owers": 2492,
      "aud": 2493,
      "import": 2494,
      "wearing": 2495,
      "clean": 2496,
      "val": 2497,
      "av": 2498,
      "##raid": 2499,
      "building": 2500,
      "everybody": 2501,
      "throws": 2502,
      "order": 2503,
      "team": 2504,
      "cy": 2505,
      "##ann": 2506,
      "afraid": 2507,
      "##ume": 2508,
      "shakes": 2509,
      "gold": 2510,
      "food": 2511,
      "truth": 2512,
      "lane": 2513,
      "##ully": 2514,
      "barbara": 2515,
      "sawyer": 2516,
      "crazy": 2517,
      "stupid": 2518,
      "dalek": 2519,
      "##ced": 2520,
      "tot": 2521,
      "leg": 2522,
      "thir": 2523,
      "bedroom": 2524,
      "jan": 2525,
      "victor": 2526,
      "telling": 2527,
      "##fort": 2528,
      "nur": 2529,
      "cordy": 2530,
      "cameron": 2531,
      "send": 2532,
      "sheriff": 2533,
      "##aylor": 2534,
      "sho": 2535,
      "eat": 2536,
      "##ale": 2537,
      "taylor": 2538,
      "save": 2539,
      "begins": 2540,
      "safe": 2541,
      "parents": 2542,
      "round": 2543,
      "lying": 2544,
      "appears": 2545,
      "quickly": 2546,
      "rings": 2547,
      "slo": 2548,
      "ly": 2549,
      "##ider": 2550,
      "finally": 2551,
      "speak": 2552,
      "earth": 2553,
      "steven": 2554,
      "important": 2555,
      "clay": 2556,
      "##eral": 2557,
      "anymore": 2558,
      "##ric": 2559,
      "protect": 2560,
      "jes": 2561,
      "neck": 2562,
      "able": 2563,
      "hate": 2564,
      "cer": 2565,
      "ber": 2566,
      "pos": 2567,
      "rick": 2568,
      "reaches": 2569,
      "forget": 2570,
      "bye": 2571,
      "sent": 2572,
      "trou": 2573,
      "cross": 2574,
      "jonathan": 2575,
      "stairs": 2576,
      "##onel": 2577,
      "sad": 2578,
      "##ob": 2579,
      "ten": 2580,
      "##~~": 2581,
      "honey": 2582,
      "sat": 2583,
      "feet": 2584,
      "##ances": 2585,
      "exp": 2586,
      "rush": 2587,
      "profess": 2588,
      "##ett": 2589,
      "space": 2590,
      "carry": 2591,
      "road": 2592,
      "super": 2593,
      "mine": 2594,
      "frank": 2595,
      "rayl": 2596,
      "record": 2597,
      "jax": 2598,
      "raylan": 2599,
      "sweet": 2600,
      "explain": 2601,
      "matt": 2602,
      "city": 2603,
      "pur": 2604,
      "##rid": 2605,
      "magic": 2606,
      "figure": 2607,
      "##zzie": 2608,
      "##ges": 2609,
      "dinner": 2610,
      "##ured": 2611,
      "damn": 2612,
      "##du": 2613,
      "##imes": 2614,
      "pot": 2615,
      "beaut": 2616,
      "locke": 2617,
      "ship": 2618,
      "##roy": 2619,
      "du": 2620,
      "alar": 2621,
      "whis": 2622,
      "lear": 2623,
      "ann": 2624,
      "finds": 2625,
      "secret": 2626,
      "sister": 2627,
      "easy": 2628,
      "machine": 2629,
      "grou": 2630,
      "kevin": 2631,
      "needs": 2632,
      "shows": 2633,
      "raj": 2634,
      "asked": 2635,
      "whe": 2636,
      "##umb": 2637,
      "##ants": 2638,
      "##rey": 2639,
      "##ior": 2640,
      "boss": 2641,
      "tried": 2642,
      "bonnie": 2643,
      "##bon": 2644,
      "witch": 2645,
      "cho": 2646,
      "others": 2647,
      "##ature": 2648,
      "abs": 2649,
      "##ocks": 2650,
      "press": 2651,
      "isab": 2652,
      "pack": 2653,
      "shall": 2654,
      "bath": 2655,
      "pan": 2656,
      "adv": 2657,
      "slowly": 2658,
      "casey": 2659,
      "arms": 2660,
      "daughter": 2661,
      "sold": 2662,
      "##**": 2663,
      "terri": 2664,
      "tur": 2665,
      "resp": 2666,
      "art": 2667,
      "expect": 2668,
      "rock": 2669,
      "somet": 2670,
      "##ised": 2671,
      "##ship": 2672,
      "izzie": 2673,
      "knock": 2674,
      "smile": 2675,
      "large": 2676,
      "draw": 2677,
      "started": 2678,
      "##teen": 2679,
      "funny": 2680,
      "weird": 2681,
      "##ery": 2682,
      "piece": 2683,
      "##umps": 2684,
      "drive": 2685,
      "follows": 2686,
      "susan": 2687,
      "##ove": 2688,
      "##ience": 2689,
      "##ries": 2690,
      "##ren": 2691,
      "##ars": 2692,
      "owen": 2693,
      "##ined": 2694,
      "hol": 2695,
      "yell": 2696,
      "##rought": 2697,
      "##used": 2698,
      "##ror": 2699,
      "##ork": 2700,
      "##inn": 2701,
      "imm": 2702,
      "group": 2703,
      "##ires": 2704,
      "eli": 2705,
      "exc": 2706,
      "chuckles": 2707,
      "brought": 2708,
      "##iel": 2709,
      "##urity": 2710,
      "##iting": 2711,
      "area": 2712,
      "straight": 2713,
      "bes": 2714,
      "mir": 2715,
      "yours": 2716,
      "wel": 2717,
      "wed": 2718,
      "##ches": 2719,
      "main": 2720,
      "cir": 2721,
      "##come": 2722,
      "stares": 2723,
      "##iding": 2724,
      "##ze": 2725,
      "##amb": 2726,
      "shoulder": 2727,
      "##od": 2728,
      "taken": 2729,
      "##--------------------------------": 2730,
      "deep": 2731,
      "##fully": 2732,
      "security": 2733,
      "died": 2734,
      "ow": 2735,
      "##men": 2736,
      "feeling": 2737,
      "obv": 2738,
      "sky": 2739,
      "conn": 2740,
      "##iva": 2741,
      "exam": 2742,
      "##elt": 2743,
      "karen": 2744,
      "fa": 2745,
      "fair": 2746,
      "dog": 2747,
      "##istina": 2748,
      "prison": 2749,
      "certain": 2750,
      "##her": 2751,
      "bir": 2752,
      "##any": 2753,
      "cloth": 2754,
      "##band": 2755,
      "##iot": 2756,
      "dawn": 2757,
      "promise": 2758,
      "##enty": 2759,
      "sol": 2760,
      "reading": 2761,
      "fil": 2762,
      "##hh": 2763,
      "cred": 2764,
      "hus": 2765,
      "form": 2766,
      "throw": 2767,
      "sloane": 2768,
      "moving": 2769,
      "sherlock": 2770,
      "duck": 2771,
      "##esh": 2772,
      "fut": 2773,
      "begin": 2774,
      "teach": 2775,
      "special": 2776,
      "pushes": 2777,
      "less": 2778,
      "##ining": 2779,
      "alive": 2780,
      "esc": 2781,
      "##iful": 2782,
      "adm": 2783,
      "seat": 2784,
      "tv": 2785,
      "cristina": 2786,
      "##over": 2787,
      "hook": 2788,
      "##arr": 2789,
      "lie": 2790,
      "complet": 2791,
      "married": 2792,
      "ya": 2793,
      "doors": 2794,
      "worried": 2795,
      "19": 2796,
      "veg": 2797,
      "emp": 2798,
      "green": 2799,
      "trouble": 2800,
      "jere": 2801,
      "##ract": 2802,
      "##ular": 2803,
      "shouldn": 2804,
      "coo": 2805,
      "norm": 2806,
      "months": 2807,
      "tyler": 2808,
      "zach": 2809,
      "##oke": 2810,
      "pen": 2811,
      "fav": 2812,
      "jord": 2813,
      "##ative": 2814,
      "nobody": 2815,
      "##ages": 2816,
      "regina": 2817,
      "jacks": 2818,
      "report": 2819,
      "jordan": 2820,
      "beautiful": 2821,
      "##gar": 2822,
      "lift": 2823,
      "dude": 2824,
      "##ames": 2825,
      "husband": 2826,
      "##jah": 2827,
      "patient": 2828,
      "kell": 2829,
      "20": 2830,
      "sometimes": 2831,
      "drin": 2832,
      "surpris": 2833,
      "approaches": 2834,
      "evil": 2835,
      "jeff": 2836,
      "burn": 2837,
      "spin": 2838,
      "sense": 2839,
      "sick": 2840,
      "dear": 2841,
      "jackson": 2842,
      "nor": 2843,
      "##rew": 2844,
      "apon": 2845,
      "gro": 2846,
      "totally": 2847,
      "danger": 2848,
      "shock": 2849,
      "pete": 2850,
      "queen": 2851,
      "circ": 2852,
      "song": 2853,
      "women": 2854,
      "victim": 2855,
      "##ming": 2856,
      "corrid": 2857,
      "##ring": 2858,
      "serious": 2859,
      "elijah": 2860,
      "welcome": 2861,
      "fly": 2862,
      "##ager": 2863,
      "robert": 2864,
      "sna": 2865,
      "##iddle": 2866,
      "screw": 2867,
      "monitor": 2868,
      "##cess": 2869,
      "jud": 2870,
      "tem": 2871,
      "julian": 2872,
      "jeremy": 2873,
      "radio": 2874,
      "##mas": 2875,
      "##stairs": 2876,
      "blue": 2877,
      "lisbon": 2878,
      "dream": 2879,
      "##aius": 2880,
      "strong": 2881,
      "##arch": 2882,
      "happens": 2883,
      "##ugg": 2884,
      "##ouse": 2885,
      "brain": 2886,
      "##cel": 2887,
      "adam": 2888,
      "##ility": 2889,
      "short": 2890,
      "gaius": 2891,
      "future": 2892,
      "ref": 2893,
      "seeing": 2894,
      "mic": 2895,
      "!!": 2896,
      "nurse": 2897,
      "professor": 2898,
      "punch": 2899,
      "lionel": 2900,
      "hop": 2901,
      "pause": 2902,
      "##del": 2903,
      "##view": 2904,
      "isabel": 2905,
      "arr": 2906,
      "fast": 2907,
      "spell": 2908,
      "hits": 2909,
      "club": 2910,
      "##oon": 2911,
      "##ryl": 2912,
      "chest": 2913,
      "drops": 2914,
      "ups": 2915,
      "quinn": 2916,
      "morg": 2917,
      "ziva": 2918,
      "thinks": 2919,
      "cab": 2920,
      "glad": 2921,
      "destroy": 2922,
      "doll": 2923,
      "opening": 2924,
      "thirteen": 2925,
      "##ted": 2926,
      "herself": 2927,
      "##olut": 2928,
      "##elf": 2929,
      "darryl": 2930,
      "except": 2931,
      "brea": 2932,
      "scream": 2933,
      "##ster": 2934,
      "shirt": 2935,
      "##kah": 2936,
      "##uring": 2937,
      "middle": 2938,
      "rus": 2939,
      "exper": 2940,
      "perh": 2941,
      "corner": 2942,
      "deser": 2943,
      "perhaps": 2944,
      "fell": 2945,
      "concer": 2946,
      "station": 2947,
      "hund": 2948,
      "spot": 2949,
      "lad": 2950,
      "leans": 2951,
      "hundred": 2952,
      "somewhere": 2953,
      "lord": 2954,
      "##oof": 2955,
      "danny": 2956,
      "completely": 2957,
      "stri": 2958,
      "fur": 2959,
      "anya": 2960,
      "10": 2961,
      ").": 2962,
      "couch": 2963,
      "##vous": 2964,
      "victoria": 2965,
      "prep": 2966,
      "meeting": 2967,
      "entire": 2968,
      "lose": 2969,
      "ir": 2970,
      "kir": 2971,
      "grow": 2972,
      "##selves": 2973,
      ".”": 2974,
      "lives": 2975,
      "ce": 2976,
      "ms": 2977,
      "tree": 2978,
      "ahead": 2979,
      "closer": 2980,
      "ain": 2981,
      "##lic": 2982,
      "cup": 2983,
      "romana": 2984,
      "planet": 2985,
      "dance": 2986,
      "##ision": 2987,
      "works": 2988,
      "##not": 2989,
      "oper": 2990,
      "children": 2991,
      "deb": 2992,
      "laughing": 2993,
      "hy": 2994,
      "hay": 2995,
      "zack": 2996,
      "riley": 2997,
      "colle": 2998,
      "peter": 2999,
      "wedding": 3000,
      "##ains": 3001,
      "##xon": 3002,
      "serv": 3003,
      "stiles": 3004,
      "shout": 3005,
      "robb": 3006,
      "opp": 3007,
      "rebekah": 3008,
      "pock": 3009,
      "corridor": 3010,
      "unless": 3011,
      "clothes": 3012,
      "##ony": 3013,
      "hurley": 3014,
      "wer": 3015,
      "maria": 3016,
      "..": 3017,
      "smiling": 3018,
      "giving": 3019,
      "inform": 3020,
      "##icking": 3021,
      "missing": 3022,
      "nervous": 3023,
      "calling": 3024,
      "amaz": 3025,
      "kim": 3026,
      "earl": 3027,
      "camp": 3028,
      "switch": 3029,
      "fade": 3030,
      "kisses": 3031,
      "choice": 3032,
      "##atter": 3033,
      "bai": 3034,
      "wesley": 3035,
      "##ape": 3036,
      "fix": 3037,
      "reach": 3038,
      "bathroom": 3039,
      "bailey": 3040,
      "ris": 3041,
      "search": 3042,
      "ran": 3043,
      "es": 3044,
      "toby": 3045,
      "##que": 3046,
      "notices": 3047,
      "finger": 3048,
      "vide": 3049,
      "##stem": 3050,
      "pop": 3051,
      "weren": 3052,
      "evidence": 3053,
      "pal": 3054,
      "eight": 3055,
      "ice": 3056,
      "maj": 3057,
      "sand": 3058,
      "gem": 3059,
      "oliver": 3060,
      "vampire": 3061,
      "scared": 3062,
      "##oid": 3063,
      "tele": 3064,
      "tech": 3065,
      "boyfriend": 3066,
      "sweets": 3067,
      "system": 3068,
      "##ends": 3069,
      "crying": 3070,
      "normal": 3071,
      "defin": 3072,
      "ooh": 3073,
      "cold": 3074,
      "##si": 3075,
      "truck": 3076,
      "asking": 3077,
      "possible": 3078,
      "crowd": 3079,
      "meant": 3080,
      "words": 3081,
      "movie": 3082,
      "tun": 3083,
      "aff": 3084,
      "raises": 3085,
      "whit": 3086,
      "fred": 3087,
      "calls": 3088,
      "board": 3089,
      "##ized": 3090,
      "##jo": 3091,
      "birth": 3092,
      "sever": 3093,
      "upset": 3094,
      "sayid": 3095,
      "imag": 3096,
      "bottle": 3097,
      "stor": 3098,
      "rust": 3099,
      "hotel": 3100,
      "carrying": 3101,
      "##ement": 3102,
      "surprised": 3103,
      "empty": 3104,
      "bal": 3105,
      "using": 3106,
      "burke": 3107,
      "chief": 3108,
      "craig": 3109,
      "##itz": 3110,
      "jer": 3111,
      "fail": 3112,
      "##bi": 3113,
      "##amed": 3114,
      "ju": 3115,
      "rig": 3116,
      "buy": 3117,
      "offer": 3118,
      "counter": 3119,
      "match": 3120,
      "##ten": 3121,
      "putting": 3122,
      "##ium": 3123,
      "tor": 3124,
      "snow": 3125,
      "##off": 3126,
      "##ker": 3127,
      "fish": 3128,
      "los": 3129,
      "##ists": 3130,
      "boyd": 3131,
      "evening": 3132,
      "##me": 3133,
      "##ending": 3134,
      "anybody": 3135,
      "vie": 3136,
      "##ency": 3137,
      "dun": 3138,
      "lucky": 3139,
      "mart": 3140,
      "college": 3141,
      "file": 3142,
      "rather": 3143,
      "lights": 3144,
      "fai": 3145,
      "jesse": 3146,
      "eff": 3147,
      "weeks": 3148,
      "band": 3149,
      "field": 3150,
      "hom": 3151,
      "anne": 3152,
      "aut": 3153,
      "kne": 3154,
      "##lder": 3155,
      "##aur": 3156,
      "##itely": 3157,
      "gemma": 3158,
      "view": 3159,
      "message": 3160,
      "turned": 3161,
      "invest": 3162,
      "ill": 3163,
      "shar": 3164,
      "store": 3165,
      "##ased": 3166,
      "absolut": 3167,
      "faith": 3168,
      "hangs": 3169,
      "##ground": 3170,
      "##do": 3171,
      "rid": 3172,
      "smell": 3173,
      "##astic": 3174,
      "bart": 3175,
      "kidding": 3176,
      "jump": 3177,
      "happening": 3178,
      "andie": 3179,
      "##ky": 3180,
      "bow": 3181,
      "##board": 3182,
      "state": 3183,
      "honest": 3184,
      "ble": 3185,
      "##__": 3186,
      "##well": 3187,
      "stew": 3188,
      "##kin": 3189,
      "suit": 3190,
      "crash": 3191,
      "fault": 3192,
      "fill": 3193,
      "##eh": 3194,
      "##cking": 3195,
      "lap": 3196,
      "dixon": 3197,
      "shit": 3198,
      "dick": 3199,
      "##tern": 3200,
      "harry": 3201,
      "questions": 3202,
      "psy": 3203,
      "court": 3204,
      "##med": 3205,
      "longer": 3206,
      "bud": 3207,
      "obviously": 3208,
      "consider": 3209,
      "##ield": 3210,
      "ep": 3211,
      "sword": 3212,
      "##eng": 3213,
      "csi": 3214,
      "james": 3215,
      "zoe": 3216,
      "##pers": 3217,
      "reve": 3218,
      "lay": 3219,
      "video": 3220,
      "known": 3221,
      "interru": 3222,
      "##port": 3223,
      "##ided": 3224,
      "loud": 3225,
      "heal": 3226,
      "seriously": 3227,
      "slight": 3228,
      "##light": 3229,
      "gran": 3230,
      "inn": 3231,
      "bern": 3232,
      "wend": 3233,
      "river": 3234,
      "edd": 3235,
      ".:": 3236,
      "justin": 3237,
      "##cri": 3238,
      "psych": 3239,
      "photo": 3240,
      "girlfriend": 3241,
      "pu": 3242,
      "jake": 3243,
      "cannot": 3244,
      "seven": 3245,
      "elev": 3246,
      "mmm": 3247,
      "shin": 3248,
      "worked": 3249,
      "worth": 3250,
      "##acy": 3251,
      "##pper": 3252,
      "shop": 3253,
      "angry": 3254,
      "confused": 3255,
      "clim": 3256,
      "attention": 3257,
      "none": 3258,
      "kirk": 3259,
      "drop": 3260,
      "##old": 3261,
      "##ked": 3262,
      "jumps": 3263,
      "definitely": 3264,
      "note": 3265,
      "##bers": 3266,
      "handle": 3267,
      "hug": 3268,
      "speaking": 3269,
      "convers": 3270,
      "laur": 3271,
      "ur": 3272,
      "hist": 3273,
      "intern": 3274,
      "##aa": 3275,
      "relation": 3276,
      "ori": 3277,
      "wallace": 3278,
      "above": 3279,
      "##ien": 3280,
      "##rise": 3281,
      "guards": 3282,
      "##mond": 3283,
      "needed": 3284,
      "thro": 3285,
      "##aire": 3286,
      "##thew": 3287,
      "ducky": 3288,
      "marcel": 3289,
      "matthew": 3290,
      "cat": 3291,
      "places": 3292,
      "##ray": 3293,
      "fac": 3294,
      "miles": 3295,
      "franc": 3296,
      "tow": 3297,
      "jacket": 3298,
      "elect": 3299,
      "\".": 3300,
      "gri": 3301,
      "...)": 3302,
      "screams": 3303,
      "appar": 3304,
      "worse": 3305,
      "rusty": 3306,
      "base": 3307,
      "stewart": 3308,
      "##ung": 3309,
      "##sey": 3310,
      "interview": 3311,
      "approach": 3312,
      "grun": 3313,
      "ray": 3314,
      "allow": 3315,
      "vick": 3316,
      "favor": 3317,
      "##ping": 3318,
      "##ela": 3319,
      "##cut": 3320,
      "given": 3321,
      "knocks": 3322,
      "busy": 3323,
      "stick": 3324,
      "pocket": 3325,
      "absolutely": 3326,
      "audrey": 3327,
      "##edi": 3328,
      "ones": 3329,
      "answers": 3330,
      "lim": 3331,
      "linds": 3332,
      "lunch": 3333,
      "quietly": 3334,
      "##ses": 3335,
      "wy": 3336,
      "las": 3337,
      "join": 3338,
      "##auses": 3339,
      "beep": 3340,
      "fran": 3341,
      "continue": 3342,
      "arch": 3343,
      "##ments": 3344,
      "hurry": 3345,
      "kick": 3346,
      "##ham": 3347,
      "soft": 3348,
      "tape": 3349,
      "become": 3350,
      "bitch": 3351,
      "continu": 3352,
      "bor": 3353,
      "kat": 3354,
      "level": 3355,
      "study": 3356,
      "commun": 3357,
      "obs": 3358,
      "tess": 3359,
      "changed": 3360,
      "low": 3361,
      "##ov": 3362,
      "christmas": 3363,
      "paul": 3364,
      "grace": 3365,
      "broken": 3366,
      "apolog": 3367,
      "tegan": 3368,
      "amazing": 3369,
      "elevator": 3370,
      "several": 3371,
      "tar": 3372,
      "##ode": 3373,
      "cory": 3374,
      "scr": 3375,
      "company": 3376,
      "##aked": 3377,
      "hears": 3378,
      "gasps": 3379,
      "hat": 3380,
      "twenty": 3381,
      "dressed": 3382,
      "##phone": 3383,
      "joy": 3384,
      "##ities": 3385,
      "##ama": 3386,
      "staring": 3387,
      "eddie": 3388,
      "mb": 3389,
      "inf": 3390,
      "chur": 3391,
      "commer": 3392,
      "##ged": 3393,
      "##wood": 3394,
      "information": 3395,
      "milner": 3396,
      "##opher": 3397,
      "##aw": 3398,
      "rim": 3399,
      "##aster": 3400,
      "equ": 3401,
      "nat": 3402,
      "##ench": 3403,
      "!\"": 3404,
      "third": 3405,
      "robbins": 3406,
      "ashley": 3407,
      "##ico": 3408,
      "cordel": 3409,
      "cordelia": 3410,
      "cook": 3411,
      "techn": 3412,
      "lindsay": 3413,
      "princ": 3414,
      "##itten": 3415,
      "force": 3416,
      "bones": 3417,
      "##uc": 3418,
      "track": 3419,
      "##ek": 3420,
      "fear": 3421,
      "katherine": 3422,
      "personal": 3423,
      "self": 3424,
      "##ki": 3425,
      "rh": 3426,
      "reads": 3427,
      "rushes": 3428,
      "church": 3429,
      "christopher": 3430,
      "throat": 3431,
      "priv": 3432,
      "commercial": 3433,
      "heav": 3434,
      "remo": 3435,
      "appre": 3436,
      "var": 3437,
      "##raph": 3438,
      "claire": 3439,
      "dig": 3440,
      "oov": 3441,
      "wound": 3442,
      "pract": 3443,
      "##ffic": 3444,
      "reveal": 3445,
      "vicki": 3446,
      "ant": 3447,
      "sym": 3448,
      "##uation": 3449,
      "gin": 3450,
      "mis": 3451,
      "emb": 3452,
      "##und": 3453,
      "sof": 3454,
      "crime": 3455,
      "##ancy": 3456,
      "gift": 3457,
      "immedi": 3458,
      "cyber": 3459,
      "kelly": 3460,
      "closed": 3461,
      "##oint": 3462,
      "thous": 3463,
      "lets": 3464,
      "surprise": 3465,
      "gil": 3466,
      "books": 3467,
      "direct": 3468,
      "hide": 3469,
      "impress": 3470,
      "osc": 3471,
      "suppose": 3472,
      "origin": 3473,
      "instead": 3474,
      "print": 3475,
      "appear": 3476,
      "##lan": 3477,
      "strugg": 3478,
      "##vern": 3479,
      "listening": 3480,
      "contact": 3481,
      "sugg": 3482,
      "ts": 3483,
      "suggest": 3484,
      "##ril": 3485,
      "andrew": 3486,
      "sean": 3487,
      "learn": 3488,
      "speed": 3489,
      "ace": 3490,
      "jenny": 3491,
      "simp": 3492,
      "##uff": 3493,
      "investig": 3494,
      "##uru": 3495,
      "##ral": 3496,
      "fighting": 3497,
      "##rie": 3498,
      "##rog": 3499,
      "rain": 3500,
      "finn": 3501,
      "kinda": 3502,
      "driver": 3503,
      "powers": 3504,
      "eating": 3505,
      "turning": 3506,
      "shawn": 3507,
      "gent": 3508,
      "mistake": 3509,
      "##res": 3510,
      "##uty": 3511,
      "caught": 3512,
      "felt": 3513,
      "pool": 3514,
      "interesting": 3515,
      "skin": 3516,
      "keeps": 3517,
      "##aged": 3518,
      "##pes": 3519,
      "seconds": 3520,
      "##ls": 3521,
      "calm": 3522,
      "##ging": 3523,
      "manny": 3524,
      "oscar": 3525,
      "button": 3526,
      "apparently": 3527,
      "accident": 3528,
      "est": 3529,
      "morgana": 3530,
      "woody": 3531,
      "credits": 3532,
      "##ili": 3533,
      "##bridge": 3534,
      "doub": 3535,
      "history": 3536,
      "mention": 3537,
      "hole": 3538,
      "rimuru": 3539,
      "starting": 3540,
      "thousand": 3541,
      "##ering": 3542,
      "grab": 3543,
      "general": 3544,
      "##icle": 3545,
      "leads": 3546,
      "##eless": 3547,
      "anywhere": 3548,
      "beach": 3549,
      "stopped": 3550,
      "ellie": 3551,
      "cond": 3552,
      "jac": 3553,
      "amer": 3554,
      "pregn": 3555,
      "serge": 3556,
      "cute": 3557,
      "##joy": 3558,
      "weak": 3559,
      "disappear": 3560,
      "blow": 3561,
      "ther": 3562,
      "univer": 3563,
      "conversation": 3564,
      "margar": 3565,
      "##ional": 3566,
      "leth": 3567,
      "driving": 3568,
      "unit": 3569,
      "rele": 3570,
      "##...": 3571,
      "##ibly": 3572,
      "sell": 3573,
      "treat": 3574,
      "pour": 3575,
      "thom": 3576,
      "##itive": 3577,
      "##osh": 3578,
      "emerg": 3579,
      "mirror": 3580,
      "connect": 3581,
      "metal": 3582,
      "##ept": 3583,
      "single": 3584,
      "##lish": 3585,
      "##ury": 3586,
      "wake": 3587,
      "##ograph": 3588,
      "wheel": 3589,
      "ny": 3590,
      "relationship": 3591,
      "appreci": 3592,
      "talked": 3593,
      "erin": 3594,
      "tick": 3595,
      "##scious": 3596,
      "##lo": 3597,
      "spir": 3598,
      "desmond": 3599,
      "feels": 3600,
      "hasn": 3601,
      "early": 3602,
      "danc": 3603,
      "path": 3604,
      "looked": 3605,
      "checks": 3606,
      "##ocking": 3607,
      "##ille": 3608,
      "grams": 3609,
      "##ulous": 3610,
      "broke": 3611,
      "gentle": 3612,
      "mac": 3613,
      "post": 3614,
      "vol": 3615,
      "arrives": 3616,
      "rul": 3617,
      "marco": 3618,
      "##ought": 3619,
      "careful": 3620,
      "sergeant": 3621,
      "ride": 3622,
      "plane": 3623,
      "leader": 3624,
      "coach": 3625,
      "pub": 3626,
      "tosh": 3627,
      "shad": 3628,
      "department": 3629,
      "loved": 3630,
      "##mes": 3631,
      "dangerous": 3632,
      "wol": 3633,
      "vi": 3634,
      "fingers": 3635,
      "##can": 3636,
      "cost": 3637,
      "15": 3638,
      "lit": 3639,
      "alaric": 3640,
      "##iny": 3641,
      "surv": 3642,
      "##gu": 3643,
      "huge": 3644,
      "poor": 3645,
      "spinner": 3646,
      "lling": 3647,
      "fool": 3648,
      "nad": 3649,
      "##ilt": 3650,
      "##ote": 3651,
      "##cent": 3652,
      "speaks": 3653,
      "mal": 3654,
      "spend": 3655,
      "ign": 3656,
      "skills": 3657,
      "tunn": 3658,
      "country": 3659,
      "margaret": 3660,
      "noise": 3661,
      "enjoy": 3662,
      "accept": 3663,
      "birthday": 3664,
      "les": 3665,
      "assist": 3666,
      "tit": 3667,
      "spl": 3668,
      "##bel": 3669,
      "island": 3670,
      "##cuss": 3671,
      "hanging": 3672,
      "gig": 3673,
      "sleeping": 3674,
      "ricky": 3675,
      "##fx": 3676,
      "gh": 3677,
      "##aine": 3678,
      "##aning": 3679,
      "vegas": 3680,
      "anim": 3681,
      "smart": 3682,
      "morgan": 3683,
      "produ": 3684,
      "##adette": 3685,
      "ward": 3686,
      "missed": 3687,
      "bernadette": 3688,
      "12": 3689,
      "drag": 3690,
      "pictures": 3691,
      "sfx": 3692,
      "judge": 3693,
      "focus": 3694,
      "relax": 3695,
      "coat": 3696,
      "entering": 3697,
      "tu": 3698,
      "figured": 3699,
      "piz": 3700,
      "san": 3701,
      "hayley": 3702,
      "##fet": 3703,
      "peri": 3704,
      "cust": 3705,
      "##ares": 3706,
      "invol": 3707,
      "##ute": 3708,
      "wendy": 3709,
      "exits": 3710,
      "addison": 3711,
      "##rance": 3712,
      "covered": 3713,
      "slightly": 3714,
      "hill": 3715,
      "wra": 3716,
      "whispers": 3717,
      "##go": 3718,
      "clock": 3719,
      "singing": 3720,
      "dy": 3721,
      "##ese": 3722,
      "respons": 3723,
      "immediately": 3724,
      "##ones": 3725,
      "##roud": 3726,
      "si": 3727,
      "resume": 3728,
      "##oms": 3729,
      "mitch": 3730,
      "##etic": 3731,
      "johnny": 3732,
      "##min": 3733,
      "epis": 3734,
      "##oose": 3735,
      "surger": 3736,
      "jin": 3737,
      "stage": 3738,
      "##ender": 3739,
      "nearby": 3740,
      "##ils": 3741,
      "following": 3742,
      "glasses": 3743,
      "##irm": 3744,
      "within": 3745,
      "address": 3746,
      "lethbridge": 3747,
      "cabin": 3748,
      "host": 3749,
      "decided": 3750,
      "requ": 3751,
      "stuck": 3752,
      "restaur": 3753,
      "rolls": 3754,
      "goodby": 3755,
      "written": 3756,
      "brun": 3757,
      "##ergy": 3758,
      "hiding": 3759,
      "russ": 3760,
      "##kins": 3761,
      "##iday": 3762,
      "##hen": 3763,
      "stom": 3764,
      "##atory": 3765,
      "travel": 3766,
      "passes": 3767,
      "##ific": 3768,
      "exh": 3769,
      "sta": 3770,
      "cand": 3771,
      "buddy": 3772,
      "##amber": 3773,
      "bright": 3774,
      "trick": 3775,
      "chick": 3776,
      "uses": 3777,
      "nadia": 3778,
      "till": 3779,
      "##ural": 3780,
      "lies": 3781,
      "fat": 3782,
      "nose": 3783,
      "fem": 3784,
      "##uit": 3785,
      "##attle": 3786,
      "kept": 3787,
      "excited": 3788,
      "forever": 3789,
      "incl": 3790,
      "mum": 3791,
      "##wards": 3792,
      "##ket": 3793,
      "page": 3794,
      "iss": 3795,
      "butters": 3796,
      "shocked": 3797,
      "toss": 3798,
      "residence": 3799,
      "##aring": 3800,
      "doc": 3801,
      "##une": 3802,
      "feed": 3803,
      "upstairs": 3804,
      "simple": 3805,
      "helping": 3806,
      "carl": 3807,
      "dru": 3808,
      "voiceover": 3809,
      "30": 3810,
      "blank": 3811,
      "garret": 3812,
      "##mer": 3813,
      "screaming": 3814,
      "woods": 3815,
      "walter": 3816,
      "idiot": 3817,
      "cooper": 3818,
      "##fortable": 3819,
      "##cl": 3820,
      "craw": 3821,
      "saved": 3822,
      "##gger": 3823,
      "besides": 3824,
      "rub": 3825,
      "##anto": 3826,
      "manager": 3827,
      "##the": 3828,
      "goodbye": 3829,
      "respect": 3830,
      "##bed": 3831,
      "##unt": 3832,
      "beside": 3833,
      "notice": 3834,
      "##ount": 3835,
      "castiel": 3836,
      "##ults": 3837,
      "##aker": 3838,
      "capp": 3839,
      "daleks": 3840,
      "prev": 3841,
      "tea": 3842,
      "yester": 3843,
      "proud": 3844,
      "boat": 3845,
      "arrest": 3846,
      "caus": 3847,
      "strange": 3848,
      "##iko": 3849,
      "position": 3850,
      "yesterday": 3851,
      "locker": 3852,
      "shi": 3853,
      "llet": 3854,
      "michel": 3855,
      "surgery": 3856,
      "kent": 3857,
      "sea": 3858,
      "crap": 3859,
      "##asure": 3860,
      "polly": 3861,
      "clearly": 3862,
      "uns": 3863,
      "pauses": 3864,
      "hero": 3865,
      "soph": 3866,
      "wyatt": 3867,
      "daddy": 3868,
      "finished": 3869,
      "certainly": 3870,
      "interested": 3871,
      "male": 3872,
      "edge": 3873,
      "kr": 3874,
      ".):": 3875,
      "write": 3876,
      "student": 3877,
      "restaurant": 3878,
      "##inting": 3879,
      "waves": 3880,
      "fift": 3881,
      "fle": 3882,
      "agre": 3883,
      "occ": 3884,
      "mista": 3885,
      "lyd": 3886,
      "earlier": 3887,
      "##lete": 3888,
      "process": 3889,
      "keys": 3890,
      "fro": 3891,
      "moved": 3892,
      "glances": 3893,
      "##leb": 3894,
      "kenny": 3895,
      "discuss": 3896,
      "president": 3897,
      "director": 3898,
      "##iers": 3899,
      "major": 3900,
      "##get": 3901,
      "energy": 3902,
      "rece": 3903,
      "joe": 3904,
      "eth": 3905,
      "hung": 3906,
      "drinking": 3907,
      "eh": 3908,
      "indic": 3909,
      "teacher": 3910,
      "dying": 3911,
      "wash": 3912,
      "\"?": 3913,
      "bent": 3914,
      "share": 3915,
      "]:": 3916,
      "##ald": 3917,
      "allison": 3918,
      "mail": 3919,
      "guest": 3920,
      "##uel": 3921,
      "extra": 3922,
      "trip": 3923,
      "breathing": 3924,
      "interrupt": 3925,
      "followed": 3926,
      "further": 3927,
      "episode": 3928,
      "pregnant": 3929,
      "ianto": 3930,
      "deliver": 3931,
      "##llis": 3932,
      "##ca": 3933,
      "stat": 3934,
      "##antly": 3935,
      "suck": 3936,
      "emmett": 3937,
      "whisper": 3938,
      "ller": 3939,
      "##ational": 3940,
      "swear": 3941,
      "demons": 3942,
      "den": 3943,
      "willi": 3944,
      "react": 3945,
      "gest": 3946,
      "##tham": 3947,
      "mass": 3948,
      "ban": 3949,
      "during": 3950,
      "aside": 3951,
      "const": 3952,
      "imagine": 3953,
      "##cca": 3954,
      "##ism": 3955,
      "doug": 3956,
      "##vis": 3957,
      "letter": 3958,
      "##por": 3959,
      "lond": 3960,
      "creature": 3961,
      "ord": 3962,
      "cave": 3963,
      "london": 3964,
      "vir": 3965,
      "bridge": 3966,
      "doorway": 3967,
      "debb": 3968,
      "tight": 3969,
      "jour": 3970,
      "ladies": 3971,
      "rebecca": 3972,
      "nine": 3973,
      "##anda": 3974,
      "locked": 3975,
      "center": 3976,
      "original": 3977,
      "background": 3978,
      "lawyer": 3979,
      "debbie": 3980,
      "##erv": 3981,
      "frown": 3982,
      "cuts": 3983,
      "kend": 3984,
      "chamber": 3985,
      "##uts": 3986,
      "appreciate": 3987,
      "realize": 3988,
      "govern": 3989,
      "##cell": 3990,
      "proper": 3991,
      "terrible": 3992,
      "phys": 3993,
      "agree": 3994,
      "engine": 3995,
      "##opsy": 3996,
      "disc": 3997,
      "medical": 3998,
      "lydia": 3999,
      "doyle": 4000,
      "##sole": 4001,
      "plays": 4002,
      "console": 4003,
      "sle": 4004,
      "##ades": 4005,
      "sac": 4006,
      "port": 4007,
      "million": 4008,
      "gy": 4009,
      "##ait": 4010,
      "asleep": 4011,
      "spent": 4012,
      "awes": 4013,
      "shru": 4014,
      "backs": 4015,
      "steal": 4016,
      "situation": 4017,
      "ger": 4018,
      "tired": 4019,
      "enem": 4020,
      "crack": 4021,
      "collect": 4022,
      "neither": 4023,
      "sar": 4024,
      "##read": 4025,
      "suspect": 4026,
      "##bing": 4027,
      "##tle": 4028,
      "keeping": 4029,
      "wat": 4030,
      "escape": 4031,
      "cappie": 4032,
      "pill": 4033,
      "##ius": 4034,
      "roy": 4035,
      "double": 4036,
      "gather": 4037,
      "remind": 4038,
      "brings": 4039,
      "##thy": 4040,
      "fbi": 4041,
      "ident": 4042,
      "smoke": 4043,
      "charge": 4044,
      "pants": 4045,
      "##rif": 4046,
      "pin": 4047,
      "returns": 4048,
      "distance": 4049,
      ".'": 4050,
      "bother": 4051,
      "##ogn": 4052,
      "tast": 4053,
      "brief": 4054,
      "bottom": 4055,
      "age": 4056,
      "sens": 4057,
      "##work": 4058,
      "beer": 4059,
      "div": 4060,
      "support": 4061,
      "lindsey": 4062,
      "detect": 4063,
      "valent": 4064,
      "ava": 4065,
      "juliet": 4066,
      "breaks": 4067,
      "joyce": 4068,
      "kh": 4069,
      "susp": 4070,
      "##line": 4071,
      "drives": 4072,
      "leela": 4073,
      "command": 4074,
      "catches": 4075,
      "phill": 4076,
      "11": 4077,
      "apart": 4078,
      "na": 4079,
      "conv": 4080,
      "##bor": 4081,
      "grant": 4082,
      "##ella": 4083,
      "billy": 4084,
      "direction": 4085,
      "device": 4086,
      "effect": 4087,
      "tour": 4088,
      "##win": 4089,
      "action": 4090,
      "stock": 4091,
      "##vil": 4092,
      "lifts": 4093,
      "sight": 4094,
      "##abe": 4095,
      "forgot": 4096,
      "phy": 4097,
      "evan": 4098,
      "##elle": 4099,
      "belong": 4100,
      "##ished": 4101,
      "drinks": 4102,
      "brown": 4103,
      "scan": 4104,
      "entrance": 4105,
      "josh": 4106,
      "manor": 4107,
      "##rect": 4108,
      "wit": 4109,
      "parker": 4110,
      "billie": 4111,
      "vic": 4112,
      "sen": 4113,
      "event": 4114,
      "moon": 4115,
      "##case": 4116,
      "holly": 4117,
      "pulling": 4118,
      "##~~~~": 4119,
      "##gging": 4120,
      "##iced": 4121,
      "recogn": 4122,
      "hoping": 4123,
      "soldier": 4124,
      "cora": 4125,
      "thomas": 4126,
      "##ened": 4127,
      "quar": 4128,
      "horse": 4129,
      "sour": 4130,
      "##za": 4131,
      "##roll": 4132,
      "sets": 4133,
      "yep": 4134,
      "phyllis": 4135,
      "##imin": 4136,
      "libr": 4137,
      "uncon": 4138,
      "gall": 4139,
      "##bby": 4140,
      "stone": 4141,
      "toshiko": 4142,
      "sant": 4143,
      "##inct": 4144,
      "bang": 4145,
      "##gue": 4146,
      "hugs": 4147,
      "vo": 4148,
      "soul": 4149,
      "cheer": 4150,
      "bunch": 4151,
      "cash": 4152,
      "##here": 4153,
      "grantham": 4154,
      "donna": 4155,
      "##cil": 4156,
      "##aron": 4157,
      "kicks": 4158,
      "bone": 4159,
      "##rop": 4160,
      "##cially": 4161,
      "awesome": 4162,
      "##ero": 4163,
      "amb": 4164,
      "train": 4165,
      "##cover": 4166,
      "showing": 4167,
      "fire": 4168,
      "decision": 4169,
      "00": 4170,
      "block": 4171,
      "stomach": 4172,
      "##ology": 4173,
      "changes": 4174,
      "egg": 4175,
      "dancing": 4176,
      "usually": 4177,
      "##ength": 4178,
      "partic": 4179,
      "concerned": 4180,
      "##ified": 4181,
      "text": 4182,
      "scient": 4183,
      "cough": 4184,
      "##ert": 4185,
      "whoo": 4186,
      "april": 4187,
      "remains": 4188,
      "confer": 4189,
      "belle": 4190,
      "lauren": 4191,
      "imposs": 4192,
      "##****": 4193,
      "uther": 4194,
      "shouts": 4195,
      "doubt": 4196,
      "##par": 4197,
      "jt": 4198,
      "students": 4199,
      "##ville": 4200,
      "peace": 4201,
      "##ata": 4202,
      "final": 4203,
      "cot": 4204,
      "liber": 4205,
      "legs": 4206,
      "gay": 4207,
      "mid": 4208,
      "ghost": 4209,
      "service": 4210,
      "tears": 4211,
      "##field": 4212,
      "drunk": 4213,
      "complete": 4214,
      "private": 4215,
      "writing": 4216,
      "rules": 4217,
      "ast": 4218,
      "18": 4219,
      "dem": 4220,
      "##top": 4221,
      "hanna": 4222,
      "##izes": 4223,
      "photograph": 4224,
      "##rick": 4225,
      "code": 4226,
      "##fast": 4227,
      "holmes": 4228,
      "york": 4229,
      "bruno": 4230,
      "bank": 4231,
      "talks": 4232,
      "joins": 4233,
      "gener": 4234,
      "wondering": 4235,
      "cass": 4236,
      "##ya": 4237,
      "todd": 4238,
      "##ales": 4239,
      "kissing": 4240,
      "##place": 4241,
      "alice": 4242,
      "bleed": 4243,
      "organ": 4244,
      "barn": 4245,
      "torch": 4246,
      "female": 4247,
      "mik": 4248,
      "vill": 4249,
      "shoes": 4250,
      "slams": 4251,
      "ros": 4252,
      "wine": 4253,
      "daniel": 4254,
      "impossible": 4255,
      "pink": 4256,
      "adams": 4257,
      "alarm": 4258,
      "##empt": 4259,
      "200": 4260,
      "##eth": 4261,
      "crew": 4262,
      "##ination": 4263,
      "##ental": 4264,
      "##ssa": 4265,
      "phil": 4266,
      "lisa": 4267,
      "hoo": 4268,
      "basket": 4269,
      "jesus": 4270,
      "blind": 4271,
      "randy": 4272,
      "punches": 4273,
      "##val": 4274,
      "likes": 4275,
      "shrugs": 4276,
      "narr": 4277,
      "tunnel": 4278,
      "joke": 4279,
      "contain": 4280,
      "dust": 4281,
      "resear": 4282,
      "prove": 4283,
      "risk": 4284,
      "flight": 4285,
      "south": 4286,
      "##uce": 4287,
      "plus": 4288,
      "##ives": 4289,
      "stanley": 4290,
      "....": 4291,
      "map": 4292,
      "breaking": 4293,
      "west": 4294,
      "diner": 4295,
      "bought": 4296,
      "tough": 4297,
      "wonderful": 4298,
      "faces": 4299,
      "lin": 4300,
      "##arage": 4301,
      "includ": 4302,
      ",\"": 4303,
      "roof": 4304,
      "chi": 4305,
      "##ception": 4306,
      "##anga": 4307,
      "library": 4308,
      "parking": 4309,
      "research": 4310,
      "kut": 4311,
      "silence": 4312,
      "pier": 4313,
      "pointing": 4314,
      "cryst": 4315,
      "fresh": 4316,
      "freak": 4317,
      "express": 4318,
      "##elot": 4319,
      "##ga": 4320,
      "##ican": 4321,
      "##ively": 4322,
      "rigs": 4323,
      "embarr": 4324,
      "kutner": 4325,
      "##riage": 4326,
      "blond": 4327,
      "##mmy": 4328,
      "type": 4329,
      "exit": 4330,
      "grad": 4331,
      "problems": 4332,
      "##how": 4333,
      "##ule": 4334,
      "pulled": 4335,
      "shh": 4336,
      "##ising": 4337,
      "embarrass": 4338,
      "themselves": 4339,
      "lower": 4340,
      "##ended": 4341,
      "jackie": 4342,
      "garage": 4343,
      "diffic": 4344,
      "fed": 4345,
      "uncle": 4346,
      "aaron": 4347,
      "kai": 4348,
      "##aper": 4349,
      "oppos": 4350,
      "becom": 4351,
      "neg": 4352,
      "jail": 4353,
      "pad": 4354,
      "helps": 4355,
      "spirit": 4356,
      "benton": 4357,
      "##ila": 4358,
      "##ka": 4359,
      "innoc": 4360,
      "cliff": 4361,
      "conference": 4362,
      "##thor": 4363,
      "project": 4364,
      "groans": 4365,
      "mia": 4366,
      "##tered": 4367,
      "alth": 4368,
      "nyssa": 4369,
      "fake": 4370,
      "##ku": 4371,
      "diana": 4372,
      "emergency": 4373,
      "tommy": 4374,
      "##tch": 4375,
      "papers": 4376,
      "##cing": 4377,
      "ugh": 4378,
      "aim": 4379,
      "dial": 4380,
      "knowing": 4381,
      "caleb": 4382,
      "photos": 4383,
      "hank": 4384,
      "##otte": 4385,
      "marry": 4386,
      "##ox": 4387,
      "commander": 4388,
      "##isy": 4389,
      "prince": 4390,
      "##gram": 4391,
      "plate": 4392,
      "twice": 4393,
      "##icent": 4394,
      "charles": 4395,
      "##rian": 4396,
      "bod": 4397,
      "darla": 4398,
      "dollars": 4399,
      "gum": 4400,
      "espe": 4401,
      "##ploy": 4402,
      "admit": 4403,
      "bear": 4404,
      "breakfast": 4405,
      "##lt": 4406,
      "communic": 4407,
      "especially": 4408,
      "soldiers": 4409,
      "nar": 4410,
      "congr": 4411,
      "thoughts": 4412,
      "shower": 4413,
      "removes": 4414,
      "picked": 4415,
      "hm": 4416,
      "labor": 4417,
      "fired": 4418,
      "exist": 4419,
      "ridic": 4420,
      "sid": 4421,
      "rigsby": 4422,
      "touches": 4423,
      "...?": 4424,
      "activ": 4425,
      "grandma": 4426,
      "##ulations": 4427,
      "ends": 4428,
      "cla": 4429,
      "##miss": 4430,
      "auth": 4431,
      "duncan": 4432,
      "##pting": 4433,
      "##ids": 4434,
      "emot": 4435,
      "mickey": 4436,
      "isa": 4437,
      "alien": 4438,
      "##com": 4439,
      "feelings": 4440,
      "staff": 4441,
      "pound": 4442,
      "topanga": 4443,
      "##leigh": 4444,
      "possibly": 4445,
      "##ino": 4446,
      "##ora": 4447,
      "cow": 4448,
      "##ients": 4449,
      "weekend": 4450,
      "neigh": 4451,
      "incred": 4452,
      "honor": 4453,
      "##aterial": 4454,
      "##ores": 4455,
      "gotten": 4456,
      "lucy": 4457,
      "sark": 4458,
      "bey": 4459,
      "dna": 4460,
      "surround": 4461,
      "##ites": 4462,
      "vampires": 4463,
      "oz": 4464,
      "##gress": 4465,
      "##ruct": 4466,
      "rum": 4467,
      "##zes": 4468,
      "turk": 4469,
      "checked": 4470,
      "unconscious": 4471,
      "helen": 4472,
      "succ": 4473,
      "moun": 4474,
      "##zen": 4475,
      "##ails": 4476,
      "worst": 4477,
      "shake": 4478,
      "nope": 4479,
      "born": 4480,
      "yard": 4481,
      "jacob": 4482,
      "drugs": 4483,
      "walt": 4484,
      "holl": 4485,
      "opt": 4486,
      "flying": 4487,
      "micro": 4488,
      "grunts": 4489,
      "ridiculous": 4490,
      "##ok": 4491,
      "object": 4492,
      "disappoint": 4493,
      "##house": 4494,
      "plans": 4495,
      "plastic": 4496,
      "memory": 4497,
      "##vely": 4498,
      "upon": 4499,
      "central": 4500,
      "elliot": 4501,
      "loid": 4502,
      "##ibility": 4503,
      "french": 4504,
      "correct": 4505,
      "dry": 4506,
      "lun": 4507,
      "fort": 4508,
      "checking": 4509,
      "dom": 4510,
      "bull": 4511,
      "##agn": 4512,
      "##pton": 4513,
      "##rison": 4514,
      "##ocol": 4515,
      "buzz": 4516,
      "inde": 4517,
      "stare": 4518,
      "##han": 4519,
      "##hip": 4520,
      "mur": 4521,
      "pun": 4522,
      "##gi": 4523,
      "knocking": 4524,
      "congrat": 4525,
      "##atic": 4526,
      "##use": 4527,
      "adric": 4528,
      "'.": 4529,
      "##pose": 4530,
      "---": 4531,
      "sis": 4532,
      "oliv": 4533,
      "bi": 4534,
      "knight": 4535,
      "por": 4536,
      "announ": 4537,
      "lee": 4538,
      "poison": 4539,
      "isaac": 4540,
      "silver": 4541,
      "##antic": 4542,
      "glo": 4543,
      "passed": 4544,
      "gentlemen": 4545,
      "bite": 4546,
      "gard": 4547,
      "weevil": 4548,
      "assistant": 4549,
      "interrog": 4550,
      "autopsy": 4551,
      "zo": 4552,
      "excell": 4553,
      "magn": 4554,
      "##aced": 4555,
      "stol": 4556,
      "bloody": 4557,
      "gate": 4558,
      "mut": 4559,
      "uncom": 4560,
      "##pr": 4561,
      "liberty": 4562,
      "monster": 4563,
      "piss": 4564,
      "##ped": 4565,
      "burst": 4566,
      "olivia": 4567,
      "...\"": 4568,
      "wakes": 4569,
      "access": 4570,
      "frowns": 4571,
      "opposite": 4572,
      "accord": 4573,
      "involved": 4574,
      "tru": 4575,
      "daisy": 4576,
      "letting": 4577,
      "##bow": 4578,
      "dir": 4579,
      "liked": 4580,
      "weiss": 4581,
      "##ceed": 4582,
      "fitz": 4583,
      "davina": 4584,
      "##ingly": 4585,
      "shuts": 4586,
      "softly": 4587,
      "dating": 4588,
      "stun": 4589,
      "learned": 4590,
      "witches": 4591,
      "tie": 4592,
      "compl": 4593,
      "difficult": 4594,
      "naked": 4595,
      "##ases": 4596,
      "load": 4597,
      "bench": 4598,
      "vinc": 4599,
      "itself": 4600,
      "exch": 4601,
      "---------------------------------": 4602,
      "smash": 4603,
      "vincent": 4604,
      "held": 4605,
      "##anting": 4606,
      "paid": 4607,
      "000": 4608,
      "##sa": 4609,
      "myster": 4610,
      "teeth": 4611,
      "universe": 4612,
      "pair": 4613,
      "##ros": 4614,
      "sophie": 4615,
      "closet": 4616,
      "barely": 4617,
      "perform": 4618,
      "##ole": 4619,
      "flat": 4620,
      "##ram": 4621,
      "eyebr": 4622,
      "##ilts": 4623,
      "everywhere": 4624,
      "teen": 4625,
      "cream": 4626,
      "tray": 4627,
      "shift": 4628,
      "names": 4629,
      "hadn": 4630,
      "juice": 4631,
      "sharp": 4632,
      "24": 4633,
      "forest": 4634,
      "##bell": 4635,
      "stuart": 4636,
      "##lebr": 4637,
      "source": 4638,
      "##usion": 4639,
      "##ument": 4640,
      "adrian": 4641,
      "surf": 4642,
      "celebr": 4643,
      "##ching": 4644,
      "quit": 4645,
      "pressure": 4646,
      "loves": 4647,
      "public": 4648,
      "nig": 4649,
      "castle": 4650,
      "spots": 4651,
      "##reen": 4652,
      "creep": 4653,
      "carson": 4654,
      "heading": 4655,
      "prec": 4656,
      "##gged": 4657,
      "##night": 4658,
      "spread": 4659,
      "gigg": 4660,
      "finding": 4661,
      "cru": 4662,
      "16": 4663,
      "nik": 4664,
      "shane": 4665,
      "##alk": 4666,
      "##andon": 4667,
      "reception": 4668,
      "##pa": 4669,
      "attempt": 4670,
      "martin": 4671,
      "tam": 4672,
      "##gen": 4673,
      "hearing": 4674,
      "custom": 4675,
      "damage": 4676,
      "although": 4677,
      "pans": 4678,
      "cars": 4679,
      "bene": 4680,
      "cking": 4681,
      "common": 4682,
      "mall": 4683,
      "tear": 4684,
      "however": 4685,
      "##usted": 4686,
      "tall": 4687,
      "records": 4688,
      "##cle": 4689,
      "remain": 4690,
      "##------": 4691,
      "##wise": 4692,
      "##orts": 4693,
      "roger": 4694,
      "signal": 4695,
      "nearly": 4696,
      "forgive": 4697,
      "arrive": 4698,
      "##illy": 4699,
      "##ppy": 4700,
      "blame": 4701,
      "desper": 4702,
      "author": 4703,
      "owe": 4704,
      "watson": 4705,
      "k9": 4706,
      "wolf": 4707,
      "dump": 4708,
      "rev": 4709,
      "goku": 4710,
      "sweetie": 4711,
      "laptop": 4712,
      "cotton": 4713,
      "##annon": 4714,
      "legal": 4715,
      "13": 4716,
      "hodges": 4717,
      "battle": 4718,
      "linc": 4719,
      "blows": 4720,
      "pieces": 4721,
      "##ko": 4722,
      "##ints": 4723,
      "##ify": 4724,
      "##dom": 4725,
      "repe": 4726,
      "hea": 4727,
      "waste": 4728,
      "results": 4729,
      "bigger": 4730,
      "memor": 4731,
      "lang": 4732,
      "##idden": 4733,
      "francis": 4734,
      "##aly": 4735,
      "falling": 4736,
      "connor": 4737,
      "nigel": 4738,
      "##-------": 4739,
      "santa": 4740,
      "##bles": 4741,
      "##uct": 4742,
      "necess": 4743,
      "detective": 4744,
      "rat": 4745,
      "##oln": 4746,
      "science": 4747,
      "clar": 4748,
      "princip": 4749,
      "meg": 4750,
      "jojo": 4751,
      "carla": 4752,
      "fel": 4753,
      "led": 4754,
      "##ba": 4755,
      "cheek": 4756,
      "scar": 4757,
      "gym": 4758,
      "exter": 4759,
      "staying": 4760,
      "##ration": 4761,
      "##ford": 4762,
      "##ensive": 4763,
      "mayor": 4764,
      "warren": 4765,
      "destroyed": 4766,
      "elder": 4767,
      "fit": 4768,
      "ting": 4769,
      "alley": 4770,
      "aftern": 4771,
      "discover": 4772,
      "image": 4773,
      "patty": 4774,
      "beginning": 4775,
      "pil": 4776,
      "suc": 4777,
      "cohen": 4778,
      "below": 4779,
      "named": 4780,
      "success": 4781,
      "excellent": 4782,
      "angri": 4783,
      "yellow": 4784,
      "fires": 4785,
      "nin": 4786,
      "marriage": 4787,
      "ashleigh": 4788,
      "advice": 4789,
      "hungry": 4790,
      "whoever": 4791,
      "showed": 4792,
      "stars": 4793,
      "credit": 4794,
      "marshal": 4795,
      "charlotte": 4796,
      "cked": 4797,
      "homer": 4798,
      "sofia": 4799,
      "beyond": 4800,
      "employ": 4801,
      "fant": 4802,
      "veh": 4803,
      "extre": 4804,
      "somehow": 4805,
      "leaning": 4806,
      "14": 4807,
      "spee": 4808,
      "##cript": 4809,
      "dirty": 4810,
      "flowers": 4811,
      "powerful": 4812,
      "fan": 4813,
      "dodo": 4814,
      "##rote": 4815,
      "bran": 4816,
      "##ians": 4817,
      "warri": 4818,
      "wild": 4819,
      "lied": 4820,
      "robot": 4821,
      "##sion": 4822,
      "##atures": 4823,
      "whose": 4824,
      "whether": 4825,
      "##lie": 4826,
      "cox": 4827,
      "##fortun": 4828,
      "race": 4829,
      "rever": 4830,
      "losing": 4831,
      "plat": 4832,
      "hugh": 4833,
      "devil": 4834,
      "jefferson": 4835,
      "crystal": 4836,
      "bodies": 4837,
      "##iment": 4838,
      "callie": 4839,
      "lincoln": 4840,
      "hunter": 4841,
      "visit": 4842,
      "und": 4843,
      "##mate": 4844,
      "yelling": 4845,
      "lil": 4846,
      "gretch": 4847,
      "afternoon": 4848,
      "champ": 4849,
      "equip": 4850,
      "unl": 4851,
      "unfortun": 4852,
      "thirty": 4853,
      "tig": 4854,
      "carrie": 4855,
      "wareh": 4856,
      "inj": 4857,
      "snea": 4858,
      "horri": 4859,
      "stake": 4860,
      "section": 4861,
      "color": 4862,
      "gretchen": 4863,
      "cops": 4864,
      "-----------------------------------------------------------------": 4865,
      "gee": 4866,
      "jones": 4867,
      "equipment": 4868,
      "pelt": 4869,
      "##izing": 4870,
      "plant": 4871,
      "##eter": 4872,
      "##mony": 4873,
      "walls": 4874,
      "choose": 4875,
      "trail": 4876,
      "##essed": 4877,
      "##head": 4878,
      "##hood": 4879,
      "medic": 4880,
      "basement": 4881,
      "favorite": 4882,
      "innocent": 4883,
      "17": 4884,
      "alph": 4885,
      "rhys": 4886,
      "jew": 4887,
      "meaning": 4888,
      "nervously": 4889,
      "whispering": 4890,
      "ay": 4891,
      "##da": 4892,
      "##ution": 4893,
      "ways": 4894,
      "##ival": 4895,
      "hes": 4896,
      "non": 4897,
      "umm": 4898,
      "wrote": 4899,
      "strang": 4900,
      "##bbing": 4901,
      "tosses": 4902,
      "bast": 4903,
      "lovely": 4904,
      "50": 4905,
      "hood": 4906,
      "slides": 4907,
      "##---------------": 4908,
      "pizza": 4909,
      "according": 4910,
      "kait": 4911,
      "--------------------------------------------------------------------------------": 4912,
      "program": 4913,
      "difference": 4914,
      "bat": 4915,
      "copy": 4916,
      "warehouse": 4917,
      "cries": 4918,
      "decide": 4919,
      "orders": 4920,
      "kendall": 4921,
      "##tit": 4922,
      "kal": 4923,
      "helped": 4924,
      "wide": 4925,
      "mars": 4926,
      "kaitlin": 4927,
      "rene": 4928,
      "tells": 4929,
      "allowed": 4930,
      "luthor": 4931,
      "nero": 4932,
      "snaps": 4933,
      "##____": 4934,
      "continuous": 4935,
      "planning": 4936,
      ".*": 4937,
      "angrily": 4938,
      "scen": 4939,
      "##wor": 4940,
      "ohh": 4941,
      "corn": 4942,
      "sin": 4943,
      "assume": 4944,
      "magaz": 4945,
      "promised": 4946,
      "lon": 4947,
      "lately": 4948,
      "##athy": 4949,
      "newsp": 4950,
      "picking": 4951,
      "grey": 4952,
      "doctors": 4953,
      "flies": 4954,
      "sniff": 4955,
      "various": 4956,
      "smo": 4957,
      "##screen": 4958,
      "stole": 4959,
      "congratulations": 4960,
      "beck": 4961,
      "steve": 4962,
      "suffer": 4963,
      "bug": 4964,
      "masters": 4965,
      "eyebrows": 4966,
      "chem": 4967,
      "acting": 4968,
      "cake": 4969,
      "##ially": 4970,
      "recover": 4971,
      "size": 4972,
      "listens": 4973,
      "north": 4974,
      "warm": 4975,
      "perfectly": 4976,
      "##ula": 4977,
      "mission": 4978,
      "controll": 4979,
      "haw": 4980,
      "willing": 4981,
      "jus": 4982,
      "army": 4983,
      "deserve": 4984,
      "cu": 4985,
      "foreh": 4986,
      "shaking": 4987,
      "cards": 4988,
      "english": 4989,
      "separ": 4990,
      "hannah": 4991,
      "##ilty": 4992,
      "##ession": 4993,
      "trash": 4994,
      "lat": 4995,
      "charming": 4996,
      "aah": 4997,
      "##nal": 4998,
      "crush": 4999,
      "kur": 5000,
      "##orter": 5001,
      "shep": 5002,
      "walked": 5003,
      "ruby": 5004,
      "forehead": 5005,
      "skull": 5006,
      "filled": 5007,
      "brad": 5008,
      "farm": 5009,
      "clin": 5010,
      "guilty": 5011,
      "##bit": 5012,
      "##ipped": 5013,
      "drug": 5014,
      "strength": 5015,
      "millicent": 5016,
      "cage": 5017,
      "raise": 5018,
      "annoy": 5019,
      "dragon": 5020,
      "charac": 5021,
      "lots": 5022,
      "##iltskin": 5023,
      "##ived": 5024,
      "##erm": 5025,
      "silent": 5026,
      "cheese": 5027,
      "football": 5028,
      "speech": 5029,
      "title": 5030,
      "throwing": 5031,
      "dylan": 5032,
      "unf": 5033,
      "eliz": 5034,
      "disappears": 5035,
      "viol": 5036,
      "cig": 5037,
      "iron": 5038,
      "squad": 5039,
      "witness": 5040,
      "##ita": 5041,
      "bella": 5042,
      "##iant": 5043,
      "luci": 5044,
      "respond": 5045,
      "##time": 5046,
      "prov": 5047,
      "pig": 5048,
      "edward": 5049,
      "sev": 5050,
      "davis": 5051,
      "site": 5052,
      "archie": 5053,
      "square": 5054,
      "ethan": 5055,
      "?”": 5056,
      "film": 5057,
      "buck": 5058,
      "vision": 5059,
      "chicken": 5060,
      "wid": 5061,
      "##nn": 5062,
      "##aint": 5063,
      "american": 5064,
      "hesit": 5065,
      "butt": 5066,
      "incre": 5067,
      "zero": 5068,
      "intell": 5069,
      "among": 5070,
      "##fied": 5071,
      "##idi": 5072,
      "cancer": 5073,
      "otherwise": 5074,
      "shoulders": 5075,
      "##tis": 5076,
      "cami": 5077,
      "pleasure": 5078,
      "##kward": 5079,
      "heavy": 5080,
      "concern": 5081,
      "knees": 5082,
      "os": 5083,
      "older": 5084,
      "bringing": 5085,
      "heaven": 5086,
      "closing": 5087,
      "experience": 5088,
      "##abeth": 5089,
      "gal": 5090,
      "disg": 5091,
      "capt": 5092,
      "awkward": 5093,
      "yates": 5094,
      "deck": 5095,
      "laf": 5096,
      "centre": 5097,
      "suspic": 5098,
      "shepard": 5099,
      "material": 5100,
      "##asing": 5101,
      "liqu": 5102,
      "lived": 5103,
      "harm": 5104,
      "jenn": 5105,
      "##ols": 5106,
      "kneels": 5107,
      "climbs": 5108,
      "##ences": 5109,
      "heavily": 5110,
      "exchange": 5111,
      "bastard": 5112,
      "##alous": 5113,
      "sheet": 5114,
      "nowhere": 5115,
      "grave": 5116,
      "ax": 5117,
      "##under": 5118,
      "lamb": 5119,
      "mix": 5120,
      "vac": 5121,
      "***": 5122,
      "calvin": 5123,
      "affect": 5124,
      "##down": 5125,
      "noticed": 5126,
      "priest": 5127,
      "##obel": 5128,
      "##esa": 5129,
      "isobel": 5130,
      "##rit": 5131,
      "downstairs": 5132,
      "amber": 5133,
      "##ruction": 5134,
      "refer": 5135,
      "##play": 5136,
      "bay": 5137,
      "##book": 5138,
      "##bur": 5139,
      "ske": 5140,
      "clears": 5141,
      "horrible": 5142,
      "##ique": 5143,
      "animal": 5144,
      "price": 5145,
      "countess": 5146,
      "including": 5147,
      "apple": 5148,
      "evans": 5149,
      "pul": 5150,
      "glow": 5151,
      "scoff": 5152,
      "swing": 5153,
      "gumball": 5154,
      "molly": 5155,
      "ourselves": 5156,
      "elizabeth": 5157,
      "##pos": 5158,
      "marks": 5159,
      "numbers": 5160,
      "bowl": 5161,
      "mama": 5162,
      "unif": 5163,
      "dining": 5164,
      "bleeding": 5165,
      "tyson": 5166,
      "shel": 5167,
      "grins": 5168,
      "circle": 5169,
      "kol": 5170,
      "enemy": 5171,
      "laboratory": 5172,
      "##rets": 5173,
      "heat": 5174,
      "bags": 5175,
      "approaching": 5176,
      "apologize": 5177,
      "##itter": 5178,
      "waitress": 5179,
      "chain": 5180,
      "kara": 5181,
      "blast": 5182,
      "mister": 5183,
      "local": 5184,
      "simpson": 5185,
      "distract": 5186,
      "jessica": 5187,
      "sacrif": 5188,
      "attic": 5189,
      "##ask": 5190,
      "##cher": 5191,
      "adj": 5192,
      "sales": 5193,
      "rod": 5194,
      "##velop": 5195,
      "gestures": 5196,
      "##unity": 5197,
      "intro": 5198,
      "chef": 5199,
      "opport": 5200,
      "player": 5201,
      "gabe": 5202,
      "##iliar": 5203,
      "dave": 5204,
      "complic": 5205,
      "presses": 5206,
      "obvious": 5207,
      "veget": 5208,
      "telephone": 5209,
      "simply": 5210,
      "##wich": 5211,
      "dumb": 5212,
      "##lf": 5213,
      "##itted": 5214,
      "##hol": 5215,
      "##sell": 5216,
      "tests": 5217,
      "nah": 5218,
      "notes": 5219,
      "spaces": 5220,
      "trey": 5221,
      "wing": 5222,
      "swings": 5223,
      "dropped": 5224,
      "##llie": 5225,
      "pretend": 5226,
      "passage": 5227,
      "jealous": 5228,
      "rule": 5229,
      "cigar": 5230,
      "lips": 5231,
      "##eas": 5232,
      "##aking": 5233,
      "frust": 5234,
      "sque": 5235,
      "council": 5236,
      "##lect": 5237,
      "pours": 5238,
      "william": 5239,
      "shouting": 5240,
      "compet": 5241,
      "sarc": 5242,
      "nk": 5243,
      "##sing": 5244,
      "easier": 5245,
      "dreams": 5246,
      "##rated": 5247,
      "##lough": 5248,
      "jung": 5249,
      "mort": 5250,
      "wrist": 5251,
      "breathe": 5252,
      "##fic": 5253,
      "##den": 5254,
      "##icia": 5255,
      "##ayer": 5256,
      "duty": 5257,
      "garden": 5258,
      "stunned": 5259,
      "jill": 5260,
      "##ipp": 5261,
      "turlough": 5262,
      "liam": 5263,
      "subtit": 5264,
      "ram": 5265,
      "##rel": 5266,
      "newspaper": 5267,
      "puzz": 5268,
      "##ona": 5269,
      "flu": 5270,
      "abandon": 5271,
      "saving": 5272,
      "rout": 5273,
      "waits": 5274,
      "partner": 5275,
      "alco": 5276,
      "##umbles": 5277,
      "yo": 5278,
      "unh": 5279,
      "tent": 5280,
      "liv": 5281,
      "trap": 5282,
      "tiny": 5283,
      "taste": 5284,
      "assum": 5285,
      "officers": 5286,
      "sisters": 5287,
      "built": 5288,
      "filtered": 5289,
      "rand": 5290,
      "ceiling": 5291,
      "gord": 5292,
      "ken": 5293,
      "forens": 5294,
      "enc": 5295,
      "pushing": 5296,
      "rises": 5297,
      "##ched": 5298,
      "opened": 5299,
      "fold": 5300,
      "pilot": 5301,
      "jungle": 5302,
      "##lene": 5303,
      "responsible": 5304,
      "jay": 5305,
      "smith": 5306,
      "##inary": 5307,
      "comb": 5308,
      "larry": 5309,
      "dish": 5310,
      "files": 5311,
      "##enger": 5312,
      "spo": 5313,
      "##rate": 5314,
      "nav": 5315,
      "##ura": 5316,
      "chall": 5317,
      "seemed": 5318,
      "honestly": 5319,
      "expression": 5320,
      "dies": 5321,
      "pers": 5322,
      "sending": 5323,
      "caused": 5324,
      "sab": 5325,
      "meat": 5326,
      "mask": 5327,
      "##ented": 5328,
      "signs": 5329,
      "deputy": 5330,
      "indeed": 5331,
      "lake": 5332,
      "prefer": 5333,
      "warning": 5334,
      "##illa": 5335,
      "sale": 5336,
      "eve": 5337,
      "design": 5338,
      "disappeared": 5339,
      "jean": 5340,
      "##zo": 5341,
      "friday": 5342,
      "coulson": 5343,
      "terry": 5344,
      "jar": 5345,
      "##rence": 5346,
      "lowers": 5347,
      "ron": 5348,
      "##ayette": 5349,
      "familiar": 5350,
      "fifty": 5351,
      "gordon": 5352,
      "##ex": 5353,
      "##acking": 5354,
      "civ": 5355,
      "scoffs": 5356,
      "swee": 5357,
      "arrived": 5358,
      "shadows": 5359,
      "eventually": 5360,
      "mountain": 5361,
      "lafayette": 5362,
      "bird": 5363,
      "row": 5364,
      "##vision": 5365,
      "heh": 5366,
      "dogs": 5367,
      "##issy": 5368,
      "particular": 5369,
      "dor": 5370,
      "dare": 5371,
      "hidden": 5372,
      "##imate": 5373,
      "log": 5374,
      "cock": 5375,
      "condition": 5376,
      "theory": 5377,
      "betray": 5378,
      "practice": 5379,
      "##theart": 5380,
      "interrogation": 5381,
      "##acon": 5382,
      "subject": 5383,
      "ham": 5384,
      "ox": 5385,
      "blake": 5386,
      "edith": 5387,
      "sandwich": 5388,
      "gio": 5389,
      "sweetheart": 5390,
      "sucks": 5391,
      "chan": 5392,
      "salv": 5393,
      "##ambers": 5394,
      "##eline": 5395,
      "covers": 5396,
      "melissa": 5397,
      "21": 5398,
      "cous": 5399,
      "fright": 5400,
      "##itions": 5401,
      "rap": 5402,
      "##!)": 5403,
      "weight": 5404,
      "##aped": 5405,
      "chocol": 5406,
      "sched": 5407,
      "appl": 5408,
      "uncomfortable": 5409,
      "carter": 5410,
      "burning": 5411,
      "awful": 5412,
      "cere": 5413,
      "diagn": 5414,
      "christina": 5415,
      "ringing": 5416,
      "##ners": 5417,
      "ana": 5418,
      "mansion": 5419,
      "bucks": 5420,
      "total": 5421,
      "aware": 5422,
      "arg": 5423,
      "proof": 5424,
      "screwed": 5425,
      "gw": 5426,
      "games": 5427,
      "beth": 5428,
      "hardly": 5429,
      "curtain": 5430,
      "motor": 5431,
      "drawer": 5432,
      "played": 5433,
      "brothers": 5434,
      "avoid": 5435,
      "alpha": 5436,
      "odd": 5437,
      "rough": 5438,
      "##sen": 5439,
      "##iolet": 5440,
      "plenty": 5441,
      "sample": 5442,
      "sofa": 5443,
      "nate": 5444,
      "##neath": 5445,
      "chibs": 5446,
      "intellig": 5447,
      "##iah": 5448,
      "mcc": 5449,
      "purpose": 5450,
      "ky": 5451,
      "##ooks": 5452,
      "##ading": 5453,
      "underneath": 5454,
      "raised": 5455,
      "reporter": 5456,
      "fairy": 5457,
      "##encer": 5458,
      "swim": 5459,
      "trapped": 5460,
      "season": 5461,
      "safet": 5462,
      "paint": 5463,
      "sue": 5464,
      "sav": 5465,
      "palace": 5466,
      "katie": 5467,
      "vehicle": 5468,
      "25": 5469,
      "vers": 5470,
      "##urs": 5471,
      "matters": 5472,
      "airport": 5473,
      "scratch": 5474,
      "fol": 5475,
      "invited": 5476,
      "accom": 5477,
      "boun": 5478,
      "ng": 5479,
      "myst": 5480,
      "offscreen": 5481,
      "interior": 5482,
      "./": 5483,
      "22": 5484,
      "40": 5485,
      "eld": 5486,
      "##oring": 5487,
      "wire": 5488,
      "spencer": 5489,
      "##ety": 5490,
      "lands": 5491,
      "motion": 5492,
      "aunt": 5493,
      "lik": 5494,
      "member": 5495,
      "francie": 5496,
      "##acle": 5497,
      "##vell": 5498,
      "camelot": 5499,
      "brill": 5500,
      "sonic": 5501,
      "crosses": 5502,
      "blanket": 5503,
      "bond": 5504,
      "##mons": 5505,
      "claim": 5506,
      "switches": 5507,
      "magazine": 5508,
      "gohan": 5509,
      "rot": 5510,
      "grin": 5511,
      "##ledge": 5512,
      "blonde": 5513,
      "ari": 5514,
      "tied": 5515,
      "##ilar": 5516,
      "principal": 5517,
      "##icing": 5518,
      "patrick": 5519,
      "una": 5520,
      "##rad": 5521,
      "##rell": 5522,
      "ster": 5523,
      "resc": 5524,
      "opportunity": 5525,
      "whist": 5526,
      "chambers": 5527,
      "leading": 5528,
      "humans": 5529,
      "speci": 5530,
      "motel": 5531,
      "safety": 5532,
      "cos": 5533,
      "ven": 5534,
      "ahh": 5535,
      "skye": 5536,
      "loudly": 5537,
      "agreed": 5538,
      "!?": 5539,
      "annoyed": 5540,
      "##zing": 5541,
      "mikael": 5542,
      "dorm": 5543,
      "##gy": 5544,
      "cutting": 5545,
      "disappointed": 5546,
      "##asc": 5547,
      "storm": 5548,
      "orbs": 5549,
      "ooo": 5550,
      "concent": 5551,
      "violet": 5552,
      "##cho": 5553,
      "##velope": 5554,
      "journal": 5555,
      "stret": 5556,
      "trace": 5557,
      "account": 5558,
      "hughes": 5559,
      "##for": 5560,
      "seal": 5561,
      "develop": 5562,
      "envelope": 5563,
      "hyp": 5564,
      "harris": 5565,
      "platform": 5566,
      "stair": 5567,
      "audience": 5568,
      "gene": 5569,
      "model": 5570,
      "painting": 5571,
      "darkness": 5572,
      "chap": 5573,
      "bound": 5574,
      "cleaning": 5575,
      "aye": 5576,
      "tax": 5577,
      "moments": 5578,
      "##mission": 5579,
      "pitch": 5580,
      "secrets": 5581,
      "##bbles": 5582,
      "motions": 5583,
      "defe": 5584,
      "giant": 5585,
      "blade": 5586,
      "facing": 5587,
      "dash": 5588,
      "sake": 5589,
      "setting": 5590,
      "colonel": 5591,
      "satan": 5592,
      "russell": 5593,
      "princess": 5594,
      "mood": 5595,
      "laughter": 5596,
      "unfortunately": 5597,
      "realized": 5598,
      "prim": 5599,
      "target": 5600,
      "##ato": 5601,
      "hatch": 5602,
      "tong": 5603,
      "##ody": 5604,
      "ended": 5605,
      "members": 5606,
      "faster": 5607,
      "release": 5608,
      "potion": 5609,
      "iv": 5610,
      "lobby": 5611,
      "necessary": 5612,
      "hart": 5613,
      "pile": 5614,
      "##rom": 5615,
      "barry": 5616,
      "chin": 5617,
      "government": 5618,
      "slept": 5619,
      "introdu": 5620,
      "likely": 5621,
      "bates": 5622,
      "##osis": 5623,
      "television": 5624,
      "backwards": 5625,
      "temper": 5626,
      "surface": 5627,
      "uniform": 5628,
      "transfer": 5629,
      "based": 5630,
      "graham": 5631,
      "becomes": 5632,
      "##au": 5633,
      "cheers": 5634,
      "##ourt": 5635,
      "surve": 5636,
      "##wol": 5637,
      "failed": 5638,
      "##father": 5639,
      "trees": 5640,
      "whitey": 5641,
      "tower": 5642,
      "pic": 5643,
      "social": 5644,
      "creatures": 5645,
      "market": 5646,
      "loss": 5647,
      "mason": 5648,
      "##itary": 5649,
      "chat": 5650,
      "usual": 5651,
      "passing": 5652,
      "dum": 5653,
      "nap": 5654,
      "##fit": 5655,
      "##elst": 5656,
      "(!)": 5657,
      "dirt": 5658,
      "dise": 5659,
      "##ushes": 5660,
      "awake": 5661,
      "purse": 5662,
      "natural": 5663,
      "##ervation": 5664,
      "##itude": 5665,
      "pleased": 5666,
      "request": 5667,
      "curse": 5668,
      "tatt": 5669,
      "outta": 5670,
      "pipe": 5671,
      "hitting": 5672,
      "kel": 5673,
      "milk": 5674,
      "candy": 5675,
      "##don": 5676,
      "comfortable": 5677,
      "grade": 5678,
      "##ago": 5679,
      "mmb": 5680,
      "searching": 5681,
      "aug": 5682,
      "benn": 5683,
      "often": 5684,
      "butter": 5685,
      "paying": 5686,
      "panel": 5687,
      "songs": 5688,
      "##30": 5689,
      "rope": 5690,
      "##istic": 5691,
      "flips": 5692,
      "attract": 5693,
      "chip": 5694,
      "realizes": 5695,
      "##ifer": 5696,
      "keller": 5697,
      "##met": 5698,
      "attach": 5699,
      "##pir": 5700,
      "##col": 5701,
      "beeps": 5702,
      "truly": 5703,
      "##asha": 5704,
      "remove": 5705,
      "ult": 5706,
      "shell": 5707,
      "##ension": 5708,
      "##ogue": 5709,
      "##ipping": 5710,
      "##gest": 5711,
      "corpor": 5712,
      "electric": 5713,
      "cure": 5714,
      "link": 5715,
      "toy": 5716,
      "heather": 5717,
      "diane": 5718,
      "insane": 5719,
      "spaceship": 5720,
      "cit": 5721,
      "##ples": 5722,
      "manage": 5723,
      "answering": 5724,
      "classroom": 5725,
      "drawing": 5726,
      "due": 5727,
      "om": 5728,
      "##orno": 5729,
      "prints": 5730,
      "##asm": 5731,
      "giorno": 5732,
      "trish": 5733,
      "interrupts": 5734,
      "##elve": 5735,
      "##ops": 5736,
      "frame": 5737,
      "##acing": 5738,
      "chocolate": 5739,
      "twelve": 5740,
      "##ician": 5741,
      "##geon": 5742,
      "scary": 5743,
      "prepared": 5744,
      "toile": 5745,
      "##ooth": 5746,
      "jenna": 5747,
      "satur": 5748,
      "expecting": 5749,
      "stories": 5750,
      "thrown": 5751,
      "madison": 5752,
      "holt": 5753,
      "irina": 5754,
      "fisher": 5755,
      "shape": 5756,
      "boxes": 5757,
      "romantic": 5758,
      "##cul": 5759,
      "curr": 5760,
      "##cha": 5761,
      "werewol": 5762,
      "carefully": 5763,
      "collaps": 5764,
      "favour": 5765,
      "nancy": 5766,
      "sla": 5767,
      "liter": 5768,
      "split": 5769,
      "arrow": 5770,
      "helic": 5771,
      "basketball": 5772,
      "gary": 5773,
      "spins": 5774,
      "grim": 5775,
      "pee": 5776,
      "struggles": 5777,
      "lucifer": 5778,
      "symb": 5779,
      "alcohol": 5780,
      "##eg": 5781,
      "mete": 5782,
      "desert": 5783,
      "pierce": 5784,
      "fal": 5785,
      "helicop": 5786,
      "aid": 5787,
      "lines": 5788,
      "ss": 5789,
      "shoe": 5790,
      "forty": 5791,
      "sup": 5792,
      "desp": 5793,
      "windows": 5794,
      "simon": 5795,
      "sexual": 5796,
      "##no": 5797,
      "inh": 5798,
      "ali": 5799,
      "scra": 5800,
      "growing": 5801,
      "##unks": 5802,
      "broad": 5803,
      "##ada": 5804,
      "grandpa": 5805,
      "janitor": 5806,
      "unser": 5807,
      "han": 5808,
      "##omi": 5809,
      "exe": 5810,
      "comfort": 5811,
      "display": 5812,
      "parts": 5813,
      "sooner": 5814,
      "lester": 5815,
      "mult": 5816,
      "ears": 5817,
      "towel": 5818,
      "pit": 5819,
      "repl": 5820,
      "contract": 5821,
      "extrem": 5822,
      "jennifer": 5823,
      "et": 5824,
      "##iation": 5825,
      "goin": 5826,
      "glory": 5827,
      "horn": 5828,
      "theresa": 5829,
      "kit": 5830,
      "career": 5831,
      "ug": 5832,
      "wil": 5833,
      "##ressed": 5834,
      "clinic": 5835,
      "##rib": 5836,
      "simmons": 5837,
      "cabinet": 5838,
      "scientist": 5839,
      "##yard": 5840,
      "elsa": 5841,
      "impressed": 5842,
      "pissed": 5843,
      "diam": 5844,
      "headed": 5845,
      "parked": 5846,
      "basically": 5847,
      "shadow": 5848,
      "rump": 5849,
      "complicated": 5850,
      "lam": 5851,
      "controls": 5852,
      "vanqu": 5853,
      "yells": 5854,
      "valentine": 5855,
      "##nell": 5856,
      "landing": 5857,
      "##gers": 5858,
      "forced": 5859,
      "qual": 5860,
      "lic": 5861,
      "##ential": 5862,
      "fellow": 5863,
      "buried": 5864,
      "village": 5865,
      "tip": 5866,
      "##lace": 5867,
      "agents": 5868,
      "sweat": 5869,
      "gilmore": 5870,
      "tattoo": 5871,
      "brand": 5872,
      "##eps": 5873,
      "gale": 5874,
      "potter": 5875,
      "##fection": 5876,
      "kidna": 5877,
      "bun": 5878,
      "net": 5879,
      "##con": 5880,
      "##eller": 5881,
      "jose": 5882,
      "patients": 5883,
      "##inese": 5884,
      "survive": 5885,
      "cousin": 5886,
      "##asion": 5887,
      "shannon": 5888,
      "smallville": 5889,
      "crowley": 5890,
      "sticks": 5891,
      "loose": 5892,
      "sig": 5893,
      "##etch": 5894,
      "doin": 5895,
      "chinese": 5896,
      "mini": 5897,
      "divor": 5898,
      "training": 5899,
      "range": 5900,
      "##vo": 5901,
      "init": 5902,
      "##chan": 5903,
      "##usting": 5904,
      "##icked": 5905,
      "slide": 5906,
      "issue": 5907,
      "character": 5908,
      "garrison": 5909,
      "satis": 5910,
      "crou": 5911,
      "hamm": 5912,
      "crimin": 5913,
      "narrator": 5914,
      "execut": 5915,
      "dim": 5916,
      "##ios": 5917,
      "##rage": 5918,
      "spring": 5919,
      "100": 5920,
      "fash": 5921,
      "pow": 5922,
      "neil": 5923,
      "changing": 5924,
      "boring": 5925,
      "turner": 5926,
      "interrupting": 5927,
      "sympt": 5928,
      "##lv": 5929,
      "##ards": 5930,
      "operation": 5931,
      "pops": 5932,
      "saturday": 5933,
      "##nes": 5934,
      "##va": 5935,
      "anx": 5936,
      "harder": 5937,
      "borrow": 5938,
      "##nam": 5939,
      "##dri": 5940,
      "##isle": 5941,
      "carries": 5942,
      "##aming": 5943,
      "lip": 5944,
      "holy": 5945,
      "stopping": 5946,
      "investigation": 5947,
      "##uten": 5948,
      "anger": 5949,
      "hurts": 5950,
      "chrissy": 5951,
      "prisoner": 5952,
      "##belie": 5953,
      "passion": 5954,
      "brilliant": 5955,
      "##onse": 5956,
      "resist": 5957,
      "warrior": 5958,
      "sink": 5959,
      "liver": 5960,
      "flashlight": 5961,
      "bike": 5962,
      "causing": 5963,
      "##oster": 5964,
      "swall": 5965,
      "watched": 5966,
      "eggs": 5967,
      "##thin": 5968,
      "shown": 5969,
      "##phy": 5970,
      "civil": 5971,
      "ticket": 5972,
      "eck": 5973,
      "buu": 5974,
      "opin": 5975,
      "darcy": 5976,
      "shoves": 5977,
      "grown": 5978,
      "drill": 5979,
      "genius": 5980,
      "considering": 5981,
      "east": 5982,
      "echo": 5983,
      "rned": 5984,
      "spider": 5985,
      "morris": 5986,
      "helicopter": 5987,
      "univers": 5988,
      "phillips": 5989,
      "##iner": 5990,
      "darwin": 5991,
      "panic": 5992,
      "august": 5993,
      "mate": 5994,
      "ruth": 5995,
      "fashion": 5996,
      "##ira": 5997,
      "virgin": 5998,
      "ambul": 5999,
      "maid": 6000,
      "item": 6001,
      "mob": 6002,
      "greatest": 6003,
      "tox": 6004,
      "##ola": 6005,
      "sixth": 6006,
      "tickets": 6007,
      "tone": 6008,
      "tongue": 6009,
      "nature": 6010,
      "##==": 6011,
      "cha": 6012,
      "23": 6013,
      "nich": 6014,
      "owner": 6015,
      "rocket": 6016,
      "gently": 6017,
      "pope": 6018,
      "##pse": 6019,
      "chen": 6020,
      "became": 6021,
      "covering": 6022,
      "negative": 6023,
      "memories": 6024,
      "abru": 6025,
      "rocks": 6026,
      "glares": 6027,
      "returned": 6028,
      "kris": 6029,
      "necklace": 6030,
      "whitney": 6031,
      "treatment": 6032,
      "extremely": 6033,
      "##asper": 6034,
      "client": 6035,
      "hunt": 6036,
      "sadly": 6037,
      "spray": 6038,
      "positive": 6039,
      "jerry": 6040,
      "bartender": 6041,
      "cyberman": 6042,
      "##rill": 6043,
      "letters": 6044,
      "community": 6045,
      "yor": 6046,
      "##ini": 6047,
      "##icy": 6048,
      "shopping": 6049,
      "studying": 6050,
      "mystic": 6051,
      "##inger": 6052,
      "##itar": 6053,
      "invite": 6054,
      "muse": 6055,
      "bin": 6056,
      "bess": 6057,
      "##walk": 6058,
      "skyler": 6059,
      "dino": 6060,
      "therap": 6061,
      "##zel": 6062,
      "cares": 6063,
      "progress": 6064,
      "trunk": 6065,
      "belt": 6066,
      "sexy": 6067,
      "ideas": 6068,
      "strike": 6069,
      "prepare": 6070,
      "alan": 6071,
      "2030": 6072,
      "silly": 6073,
      "##fl": 6074,
      "convin": 6075,
      "passenger": 6076,
      ".,": 6077,
      "##vies": 6078,
      "upper": 6079,
      "##ilities": 6080,
      "official": 6081,
      "##org": 6082,
      "cher": 6083,
      "easily": 6084,
      "crawley": 6085,
      "hurries": 6086,
      "rumpelst": 6087,
      "##ni": 6088,
      "##arily": 6089,
      "accus": 6090,
      "ending": 6091,
      "finishes": 6092,
      "governor": 6093,
      "porch": 6094,
      "toilet": 6095,
      "rumpelstiltskin": 6096,
      "cel": 6097,
      "slaps": 6098,
      "beeping": 6099,
      "toast": 6100,
      "snake": 6101,
      "stronger": 6102,
      "khloe": 6103,
      "mechan": 6104,
      "taught": 6105,
      "alicia": 6106,
      "muff": 6107,
      "##zzo": 6108,
      "directly": 6109,
      "nic": 6110,
      "climb": 6111,
      "attend": 6112,
      "tum": 6113,
      "mommy": 6114,
      "hud": 6115,
      "tan": 6116,
      "regret": 6117,
      "esther": 6118,
      "cia": 6119,
      "worker": 6120,
      "flashes": 6121,
      "nara": 6122,
      "sheila": 6123,
      "previously": 6124,
      "fifteen": 6125,
      "stolen": 6126,
      "##iction": 6127,
      "drew": 6128,
      "nan": 6129,
      "stark": 6130,
      "christy": 6131,
      "tiss": 6132,
      "##oop": 6133,
      "stro": 6134,
      "deg": 6135,
      "sugar": 6136,
      "pattern": 6137,
      "bored": 6138,
      "infl": 6139,
      "cro": 6140,
      "##ste": 6141,
      "erm": 6142,
      "tub": 6143,
      "flesh": 6144,
      "diss": 6145,
      "##c1": 6146,
      "cane": 6147,
      "shame": 6148,
      "funeral": 6149,
      "connection": 6150,
      "jun": 6151,
      "grate": 6152,
      "dealing": 6153,
      "boone": 6154,
      "babidi": 6155,
      "grandfather": 6156,
      "garb": 6157,
      "giggles": 6158,
      "ambulance": 6159,
      "taps": 6160,
      "johnson": 6161,
      "freed": 6162,
      "reh": 6163,
      "quarter": 6164,
      "neighbor": 6165,
      "su1": 6166,
      "##ennis": 6167,
      "##odes": 6168,
      "indicates": 6169,
      "reaction": 6170,
      "fancy": 6171,
      "ped": 6172,
      "recently": 6173,
      "##utenant": 6174,
      "##c1de": 6175,
      "su1c1de": 6176,
      "caps": 6177,
      "loun": 6178,
      "diamond": 6179,
      "trad": 6180,
      "naomi": 6181,
      "ugly": 6182,
      "samuel": 6183,
      "clown": 6184,
      "wrapped": 6185,
      "##driver": 6186,
      "tina": 6187,
      "bru": 6188,
      "enzo": 6189,
      "distur": 6190,
      "pills": 6191,
      "movies": 6192,
      "military": 6193,
      "issues": 6194,
      "journey": 6195,
      "dagger": 6196,
      "traum": 6197,
      "nikki": 6198,
      "exhales": 6199,
      "pump": 6200,
      "##ots": 6201,
      "hub": 6202,
      "embarrassed": 6203,
      "mystery": 6204,
      "mol": 6205,
      "sed": 6206,
      "##bil": 6207,
      "web": 6208,
      "tooth": 6209,
      "clever": 6210,
      "location": 6211,
      "curtis": 6212,
      "##aging": 6213,
      "##iano": 6214,
      "cafe": 6215,
      "disease": 6216,
      "eko": 6217,
      "##non": 6218,
      "threw": 6219,
      "pred": 6220,
      "ducks": 6221,
      "gloves": 6222,
      "junk": 6223,
      "##umes": 6224,
      "data": 6225,
      "##edy": 6226,
      "stack": 6227,
      "firm": 6228,
      "shr": 6229,
      "smir": 6230,
      "bul": 6231,
      "bends": 6232,
      "mandy": 6233,
      "##eria": 6234,
      "trunks": 6235,
      "fully": 6236,
      "response": 6237,
      "revealing": 6238,
      "dead": 6239,
      "wo": 6240,
      "##uries": 6241,
      "scare": 6242,
      "dent": 6243,
      "##mother": 6244,
      "purs": 6245,
      "screwdriver": 6246,
      "wet": 6247,
      "curious": 6248,
      "krist": 6249,
      "lilah": 6250,
      "ach": 6251,
      "mercy": 6252,
      "\",": 6253,
      "ren": 6254,
      "mentioned": 6255,
      "fades": 6256,
      "vent": 6257,
      "##die": 6258,
      "##ardon": 6259,
      "vault": 6260,
      "america": 6261,
      "museum": 6262,
      "warrant": 6263,
      "##while": 6264,
      "##ological": 6265,
      "expected": 6266,
      "##inating": 6267,
      "##ization": 6268,
      "warn": 6269,
      "kills": 6270,
      "spoke": 6271,
      "stays": 6272,
      "harmony": 6273,
      "examining": 6274,
      "mn": 6275,
      "seated": 6276,
      "##unte": 6277,
      "rober": 6278,
      "serve": 6279,
      "ja": 6280,
      "chart": 6281,
      "##ilton": 6282,
      "arlene": 6283,
      "walker": 6284,
      "pounds": 6285,
      "##alie": 6286,
      "##ained": 6287,
      "pray": 6288,
      "temple": 6289,
      "williams": 6290,
      "rab": 6291,
      "rise": 6292,
      "##pet": 6293,
      "brace": 6294,
      "proceed": 6295,
      "accent": 6296,
      "##ored": 6297,
      "sund": 6298,
      "anti": 6299,
      "forth": 6300,
      "drum": 6301,
      "rubs": 6302,
      "continuing": 6303,
      "victims": 6304,
      "guests": 6305,
      "tro": 6306,
      "##arm": 6307,
      "##aser": 6308,
      "streets": 6309,
      "lieutenant": 6310,
      "!!!": 6311,
      "##cribed": 6312,
      "span": 6313,
      "regular": 6314,
      "bessie": 6315,
      "brit": 6316,
      "##gl": 6317,
      "draws": 6318,
      "##cis": 6319,
      "##ington": 6320,
      "##ala": 6321,
      "chann": 6322,
      "orange": 6323,
      "cybermen": 6324,
      "##ware": 6325,
      "stacy": 6326,
      "clou": 6327,
      "slip": 6328,
      "obser": 6329,
      "##fus": 6330,
      "##ww": 6331,
      "launch": 6332,
      "domin": 6333,
      "joseph": 6334,
      "##ered": 6335,
      "nico": 6336,
      "##idy": 6337,
      "##iders": 6338,
      "kin": 6339,
      "vote": 6340,
      "##ester": 6341,
      "davros": 6342,
      "maxwell": 6343,
      "determ": 6344,
      "freeze": 6345,
      "reasons": 6346,
      "instruct": 6347,
      "##iac": 6348,
      "##eland": 6349,
      "##chair": 6350,
      "creed": 6351,
      "scanner": 6352,
      "coughs": 6353,
      "customer": 6354,
      "sut": 6355,
      "grunting": 6356,
      "dialogue": 6357,
      "hollow": 6358,
      "opinion": 6359,
      "##ppler": 6360,
      "scree": 6361,
      "glenn": 6362,
      "##zzi": 6363,
      "details": 6364,
      "##bish": 6365,
      "##amin": 6366,
      "assign": 6367,
      "##attered": 6368,
      "charges": 6369,
      "delic": 6370,
      "jerk": 6371,
      "joan": 6372,
      "waiter": 6373,
      "century": 6374,
      "responsibility": 6375,
      "fug": 6376,
      "seats": 6377,
      "sylv": 6378,
      "frannie": 6379,
      "slayer": 6380,
      "relie": 6381,
      "silas": 6382,
      "medico": 6383,
      "forensic": 6384,
      "forces": 6385,
      "tables": 6386,
      "dinozzo": 6387,
      "'?": 6388,
      "fence": 6389,
      "panting": 6390,
      "##gon": 6391,
      "settle": 6392,
      "desperate": 6393,
      "nicole": 6394,
      "shield": 6395,
      "tag": 6396,
      "##cient": 6397,
      "##rier": 6398,
      "gray": 6399,
      "decor": 6400,
      "prisoners": 6401,
      "??": 6402,
      "fate": 6403,
      "##ening": 6404,
      "##iser": 6405,
      "explan": 6406,
      "cells": 6407,
      "nuts": 6408,
      "knowledge": 6409,
      "senior": 6410,
      "oxy": 6411,
      "examines": 6412,
      "##rav": 6413,
      "policeman": 6414,
      "ordered": 6415,
      "abandoned": 6416,
      "math": 6417,
      "underw": 6418,
      "smells": 6419,
      "kicked": 6420,
      "rip": 6421,
      "##leton": 6422,
      "rooms": 6423,
      "babies": 6424,
      "dollar": 6425,
      "valenti": 6426,
      "recognize": 6427,
      "bursts": 6428,
      "kay": 6429,
      "spec": 6430,
      "felix": 6431,
      "hend": 6432,
      "##bson": 6433,
      "##iest": 6434,
      "fridge": 6435,
      "coron": 6436,
      "intercut": 6437,
      "bennett": 6438,
      "##ave": 6439,
      "anth": 6440,
      "flames": 6441,
      "transm": 6442,
      "brody": 6443,
      "balls": 6444,
      "woo": 6445,
      "##asty": 6446,
      "keppler": 6447,
      "sett": 6448,
      "admin": 6449,
      "agreement": 6450,
      "cks": 6451,
      "guitar": 6452,
      "relief": 6453,
      "struggling": 6454,
      "fab": 6455,
      "oce": 6456,
      "infection": 6457,
      "##oph": 6458,
      "blah": 6459,
      "travers": 6460,
      "miser": 6461,
      "##pm": 6462,
      "drake": 6463,
      "hunting": 6464,
      "health": 6465,
      "sucre": 6466,
      ".(": 6467,
      "##ache": 6468,
      "meanwhile": 6469,
      "lorne": 6470,
      "armed": 6471,
      "nora": 6472,
      "destiny": 6473,
      "storage": 6474,
      "grill": 6475,
      "griff": 6476,
      "physical": 6477,
      "container": 6478,
      "der": 6479,
      "meth": 6480,
      "friendly": 6481,
      "collier": 6482,
      "musical": 6483,
      "clicks": 6484,
      "sybil": 6485,
      "golden": 6486,
      "phillip": 6487,
      "incredible": 6488,
      "mi": 6489,
      "reb": 6490,
      "ladder": 6491,
      "amanda": 6492,
      "##venge": 6493,
      "handc": 6494,
      "trigger": 6495,
      "summers": 6496,
      "mostly": 6497,
      "jared": 6498,
      "ko": 6499,
      "proced": 6500,
      "liquid": 6501,
      "cind": 6502,
      "lid": 6503,
      "rent": 6504,
      "rate": 6505,
      "##rus": 6506,
      "##atore": 6507,
      "seb": 6508,
      "transl": 6509,
      "deeply": 6510,
      "scenes": 6511,
      "actual": 6512,
      "##nold": 6513,
      "spr": 6514,
      "surely": 6515,
      "internet": 6516,
      "salvatore": 6517,
      "fist": 6518,
      "twist": 6519,
      "wooden": 6520,
      "colin": 6521,
      "##uffs": 6522,
      "aver": 6523,
      "cod": 6524,
      "style": 6525,
      "fore": 6526,
      "orb": 6527,
      "disp": 6528,
      "##kn": 6529,
      "beg": 6530,
      "county": 6531,
      "confirm": 6532,
      "linda": 6533,
      "ate": 6534,
      "sadie": 6535,
      "##rest": 6536,
      "beast": 6537,
      "maint": 6538,
      "##itty": 6539,
      "mod": 6540,
      "kissed": 6541,
      "literally": 6542,
      "oct": 6543,
      "yale": 6544,
      "zone": 6545,
      "##ilight": 6546,
      "twilight": 6547,
      "stevens": 6548,
      "exterior": 6549,
      "intelligence": 6550,
      "nichol": 6551,
      "od": 6552,
      "dew": 6553,
      "doorbell": 6554,
      "pov": 6555,
      "err": 6556,
      "reality": 6557,
      "meteor": 6558,
      "university": 6559,
      "troy": 6560,
      "smoking": 6561,
      "fasc": 6562,
      "voices": 6563,
      "sides": 6564,
      "blocks": 6565,
      "needle": 6566,
      "az": 6567,
      "py": 6568,
      "badly": 6569,
      "dur": 6570,
      "monkey": 6571,
      "helmet": 6572,
      "roman": 6573,
      "##che": 6574,
      "##rics": 6575,
      "believed": 6576,
      "fourth": 6577,
      "insist": 6578,
      "salam": 6579,
      "janice": 6580,
      "tissue": 6581,
      "lif": 6582,
      "travell": 6583,
      "pats": 6584,
      "mikey": 6585,
      "professional": 6586,
      "escort": 6587,
      "pillow": 6588,
      "langu": 6589,
      "gear": 6590,
      "##cony": 6591,
      "nellie": 6592,
      "##brooke": 6593,
      "invis": 6594,
      "knocked": 6595,
      "burns": 6596,
      "balcony": 6597,
      "tube": 6598,
      "gut": 6599,
      "kry": 6600,
      "mex": 6601,
      "tracks": 6602,
      "ours": 6603,
      "property": 6604,
      "folks": 6605,
      "breast": 6606,
      "candles": 6607,
      "subtitle": 6608,
      "random": 6609,
      "gail": 6610,
      "##lead": 6611,
      "alt": 6612,
      "obey": 6613,
      "explains": 6614,
      "healthy": 6615,
      "marcus": 6616,
      "brien": 6617,
      "arrested": 6618,
      "lounge": 6619,
      "fer": 6620,
      "sally": 6621,
      "##iled": 6622,
      "pointed": 6623,
      "ruined": 6624,
      "cases": 6625,
      "cult": 6626,
      "kourt": 6627,
      "##mi": 6628,
      "rejo": 6629,
      "theme": 6630,
      "flower": 6631,
      "bars": 6632,
      "animals": 6633,
      "45": 6634,
      "lina": 6635,
      "useless": 6636,
      "speaker": 6637,
      "cafet": 6638,
      "struggle": 6639,
      "lonely": 6640,
      "laund": 6641,
      "grandmother": 6642,
      "costume": 6643,
      "vanquish": 6644,
      "##bly": 6645,
      "##raft": 6646,
      "goten": 6647,
      "planned": 6648,
      "##mar": 6649,
      "##itation": 6650,
      "trial": 6651,
      "##ators": 6652,
      "magical": 6653,
      "marty": 6654,
      "##aaaa": 6655,
      "ocean": 6656,
      "stal": 6657,
      "obl": 6658,
      "german": 6659,
      "ancient": 6660,
      "##eling": 6661,
      "neal": 6662,
      "##quar": 6663,
      "thor": 6664,
      "weather": 6665,
      "amount": 6666,
      "buying": 6667,
      "cooking": 6668,
      "schedule": 6669,
      "##urance": 6670,
      "bash": 6671,
      "gab": 6672,
      "##af": 6673,
      "##jack": 6674,
      "managed": 6675,
      "##enda": 6676,
      "flag": 6677,
      "##box": 6678,
      "created": 6679,
      "horror": 6680,
      "article": 6681,
      "tempor": 6682,
      "ome": 6683,
      "delight": 6684,
      "ellen": 6685,
      "##duct": 6686,
      "gilbert": 6687,
      "rar": 6688,
      "pushed": 6689,
      "indist": 6690,
      "creepy": 6691,
      "riding": 6692,
      "##akes": 6693,
      "angelus": 6694,
      "perio": 6695,
      "storybrooke": 6696,
      "afford": 6697,
      "cafeteria": 6698,
      "clip": 6699,
      "bron": 6700,
      "wave": 6701,
      "eva": 6702,
      "polit": 6703,
      "avail": 6704,
      "campus": 6705,
      "observation": 6706,
      "cigarette": 6707,
      "stood": 6708,
      "comic": 6709,
      "behav": 6710,
      "brave": 6711,
      "squee": 6712,
      "attached": 6713,
      "kourtney": 6714,
      "hired": 6715,
      "experiment": 6716,
      "punish": 6717,
      "meets": 6718,
      "compan": 6719,
      "bret": 6720,
      "##ques": 6721,
      "realise": 6722,
      "counsel": 6723,
      "beaver": 6724,
      "##olve": 6725,
      "throne": 6726,
      "similar": 6727,
      "arrange": 6728,
      "separate": 6729,
      "license": 6730,
      "complex": 6731,
      "kurt": 6732,
      "gwaine": 6733,
      "##lies": 6734,
      "##vert": 6735,
      "ability": 6736,
      "overl": 6737,
      "flor": 6738,
      "percent": 6739,
      "cem": 6740,
      "roberts": 6741,
      "tuck": 6742,
      "##amy": 6743,
      "##ado": 6744,
      "##rol": 6745,
      "whenever": 6746,
      "biggest": 6747,
      "##iley": 6748,
      "bubbles": 6749,
      "ruin": 6750,
      "karl": 6751,
      "convince": 6752,
      "lamp": 6753,
      "jeffrey": 6754,
      "##iter": 6755,
      "soci": 6756,
      "##outs": 6757,
      "brooks": 6758,
      "##otten": 6759,
      "wallet": 6760,
      "garbage": 6761,
      "ut": 6762,
      "##icted": 6763,
      "rescue": 6764,
      "pir": 6765,
      "##omy": 6766,
      "##athers": 6767,
      "sports": 6768,
      "loy": 6769,
      "fantastic": 6770,
      "jules": 6771,
      "fixed": 6772,
      "reached": 6773,
      "surrounded": 6774,
      "indistinct": 6775,
      "##aks": 6776,
      "selling": 6777,
      "announcer": 6778,
      "wre": 6779,
      "coinc": 6780,
      "handing": 6781,
      "protecting": 6782,
      "##umbling": 6783,
      "blew": 6784,
      "##inks": 6785,
      "fract": 6786,
      "depends": 6787,
      "explanation": 6788,
      "thunder": 6789,
      "##imp": 6790,
      "##aken": 6791,
      "drawn": 6792,
      "forgotten": 6793,
      "register": 6794,
      "dropping": 6795,
      "discovered": 6796,
      "megan": 6797,
      "abb": 6798,
      "spare": 6799,
      "capable": 6800,
      "polo": 6801,
      "eur": 6802,
      "##stand": 6803,
      "volunte": 6804,
      "demand": 6805,
      "##cription": 6806,
      "chairs": 6807,
      "env": 6808,
      "underground": 6809,
      "grav": 6810,
      "exciting": 6811,
      "##ulate": 6812,
      "mont": 6813,
      "minister": 6814,
      "rufus": 6815,
      "dai": 6816,
      "##eal": 6817,
      "forb": 6818,
      "##umn": 6819,
      "nightm": 6820,
      "babette": 6821,
      "package": 6822,
      "baseball": 6823,
      "cemet": 6824,
      "gross": 6825,
      "packing": 6826,
      "microphone": 6827,
      "bum": 6828,
      "louise": 6829,
      "lawrence": 6830,
      "jeffersonian": 6831,
      "applause": 6832,
      "pod": 6833,
      "stress": 6834,
      "fallen": 6835,
      "##apping": 6836,
      "delivery": 6837,
      "adjust": 6838,
      "##oci": 6839,
      "rey": 6840,
      "touched": 6841,
      "holiday": 6842,
      "laundry": 6843,
      "zar": 6844,
      "infect": 6845,
      "lungs": 6846,
      "medicine": 6847,
      "bust": 6848,
      "pure": 6849,
      "revenge": 6850,
      "scot": 6851,
      "appoint": 6852,
      "impro": 6853,
      "sunny": 6854,
      "statue": 6855,
      "lanc": 6856,
      "meal": 6857,
      "clut": 6858,
      "tail": 6859,
      "##ulation": 6860,
      "happily": 6861,
      "pathetic": 6862,
      "sylvia": 6863,
      "lac": 6864,
      "shaft": 6865,
      "exha": 6866,
      "##ida": 6867,
      "degr": 6868,
      "lori": 6869,
      "angle": 6870,
      "term": 6871,
      "sacrifice": 6872,
      "rainbow": 6873,
      "chemical": 6874,
      "hut": 6875,
      "##mos": 6876,
      "andre": 6877,
      "brist": 6878,
      "bruce": 6879,
      "fever": 6880,
      "folder": 6881,
      "factory": 6882,
      "ignore": 6883,
      "thick": 6884,
      "shelf": 6885,
      "unbelie": 6886,
      "stayed": 6887,
      "ought": 6888,
      "##zed": 6889,
      "laying": 6890,
      "natalie": 6891,
      "##uk": 6892,
      "series": 6893,
      "function": 6894,
      "guessing": 6895,
      "repres": 6896,
      "##ologist": 6897,
      "delet": 6898,
      "signed": 6899,
      "kingdom": 6900,
      "gathered": 6901,
      "loyal": 6902,
      "chose": 6903,
      "uhh": 6904,
      "##boy": 6905,
      "sebast": 6906,
      "##alys": 6907,
      "sheph": 6908,
      "suv": 6909,
      "##esty": 6910,
      "##erald": 6911,
      "mons": 6912,
      "##yt": 6913,
      "sweater": 6914,
      "employee": 6915,
      "##ran": 6916,
      "sanders": 6917,
      "laura": 6918,
      "frozen": 6919,
      "##craft": 6920,
      "manages": 6921,
      "##agne": 6922,
      "##mo": 6923,
      "##cor": 6924,
      "marge": 6925,
      "complain": 6926,
      "invisible": 6927,
      "oil": 6928,
      "patch": 6929,
      "##ued": 6930,
      "higher": 6931,
      "tend": 6932,
      "##riate": 6933,
      "conscious": 6934,
      "##ously": 6935,
      "crossed": 6936,
      "##fire": 6937,
      "alert": 6938,
      "##olis": 6939,
      "grabbing": 6940,
      "personally": 6941,
      "enemies": 6942,
      "permission": 6943,
      "prior": 6944,
      "studio": 6945,
      "period": 6946,
      "bail": 6947,
      "kane": 6948,
      "sew": 6949,
      "lev": 6950,
      "friendship": 6951,
      "##********": 6952,
      "loft": 6953,
      "blur": 6954,
      "slam": 6955,
      "associ": 6956,
      "internal": 6957,
      "darling": 6958,
      "secretary": 6959,
      "russian": 6960,
      "controller": 6961,
      "surveill": 6962,
      "kag": 6963,
      "wins": 6964,
      "sty": 6965,
      "embr": 6966,
      "teddy": 6967,
      "harv": 6968,
      "werewolf": 6969,
      "bry": 6970,
      "furn": 6971,
      "foster": 6972,
      "vince": 6973,
      "timmy": 6974,
      "laid": 6975,
      "impl": 6976,
      "##stein": 6977,
      "cemetery": 6978,
      "pretending": 6979,
      "cath": 6980,
      "ncis": 6981,
      "tires": 6982,
      "##cast": 6983,
      "##asy": 6984,
      "brid": 6985,
      "drown": 6986,
      "stranger": 6987,
      "candle": 6988,
      "renee": 6989,
      "freedom": 6990,
      "vast": 6991,
      "dece": 6992,
      "alb": 6993,
      "amused": 6994,
      "prop": 6995,
      "reports": 6996,
      "urg": 6997,
      "royal": 6998,
      "torchwood": 6999,
      "krypton": 7000,
      "fund": 7001,
      "remote": 7002,
      "strip": 7003,
      "##dle": 7004,
      "lilly": 7005,
      "wanting": 7006,
      "criminal": 7007,
      "##ads": 7008,
      "##irts": 7009,
      "knee": 7010,
      "nights": 7011,
      "circum": 7012,
      "cgi": 7013,
      "nail": 7014,
      "##oooo": 7015,
      "golf": 7016,
      "traffic": 7017,
      "##he": 7018,
      "neur": 7019,
      "lockwood": 7020,
      "becky": 7021,
      "increase": 7022,
      "collapses": 7023,
      "causes": 7024,
      "mord": 7025,
      "national": 7026,
      "##lec": 7027,
      "spy": 7028,
      "nurses": 7029,
      "offered": 7030,
      "sebastian": 7031,
      "##ii": 7032,
      "freya": 7033,
      "salt": 7034,
      "gide": 7035,
      "geller": 7036,
      "mental": 7037,
      "##ront": 7038,
      "##antage": 7039,
      "cait": 7040,
      "touching": 7041,
      "##ture": 7042,
      "beam": 7043,
      "##rah": 7044,
      "create": 7045,
      "transport": 7046,
      "vegeta": 7047,
      "deleted": 7048,
      "panc": 7049,
      "rex": 7050,
      "##using": 7051,
      "honour": 7052,
      "##ito": 7053,
      "hers": 7054,
      "fruit": 7055,
      "nept": 7056,
      "##ablish": 7057,
      "roommate": 7058,
      "subst": 7059,
      "lesson": 7060,
      "neighb": 7061,
      "oxygen": 7062,
      "gerald": 7063,
      "rack": 7064,
      "##vable": 7065,
      "march": 7066,
      "missy": 7067,
      "caut": 7068,
      "impressive": 7069,
      "cassidy": 7070,
      "gav": 7071,
      "guardian": 7072,
      "detail": 7073,
      "lyrics": 7074,
      "coop": 7075,
      "surveillance": 7076,
      "gideon": 7077,
      "##eap": 7078,
      "sidewalk": 7079,
      "famous": 7080,
      "explodes": 7081,
      "pulse": 7082,
      "ba": 7083,
      "pardon": 7084,
      "trist": 7085,
      "gasping": 7086,
      "lays": 7087,
      "##guing": 7088,
      "celebrate": 7089,
      "monk": 7090,
      "saman": 7091,
      "bout": 7092,
      "##uri": 7093,
      "lect": 7094,
      "petty": 7095,
      "expert": 7096,
      "repeat": 7097,
      "frustrated": 7098,
      "nut": 7099,
      "##oma": 7100,
      "hale": 7101,
      "frightened": 7102,
      "bump": 7103,
      "cler": 7104,
      "score": 7105,
      "##aph": 7106,
      "zooms": 7107,
      "beneath": 7108,
      "justice": 7109,
      "leather": 7110,
      "types": 7111,
      "symbol": 7112,
      "samantha": 7113,
      "##aton": 7114,
      "goodman": 7115,
      "connected": 7116,
      "becoming": 7117,
      "trauma": 7118,
      "language": 7119,
      "ath": 7120,
      "cub": 7121,
      "##pack": 7122,
      "##mit": 7123,
      "##alian": 7124,
      "desc": 7125,
      "failure": 7126,
      "brush": 7127,
      "##order": 7128,
      "symptoms": 7129,
      "mos": 7130,
      "online": 7131,
      "replace": 7132,
      "supply": 7133,
      "##world": 7134,
      "relieved": 7135,
      "former": 7136,
      "establish": 7137,
      "neptune": 7138,
      "rn": 7139,
      "inner": 7140,
      "altern": 7141,
      "jobs": 7142,
      "guilt": 7143,
      "dials": 7144,
      "perk": 7145,
      "parent": 7146,
      "drove": 7147,
      "insurance": 7148,
      "pockets": 7149,
      "palm": 7150,
      "bee": 7151,
      "cancel": 7152,
      "conc": 7153,
      "cris": 7154,
      "kelso": 7155,
      "hates": 7156,
      "##uments": 7157,
      "##astically": 7158,
      "startled": 7159,
      "practically": 7160,
      "locks": 7161,
      "##elyn": 7162,
      "footst": 7163,
      "circuit": 7164,
      "psychic": 7165,
      "whom": 7166,
      "##ahl": 7167,
      "preparing": 7168,
      "pages": 7169,
      "–[": 7170,
      "spending": 7171,
      "protection": 7172,
      "effort": 7173,
      "]–": 7174,
      "abig": 7175,
      "badge": 7176,
      "tomb": 7177,
      "defense": 7178,
      "visitor": 7179,
      "champagne": 7180,
      "multip": 7181,
      "celest": 7182,
      "ess": 7183,
      "##eny": 7184,
      "commit": 7185,
      "isabella": 7186,
      "storms": 7187,
      "matthews": 7188,
      "limo": 7189,
      "digging": 7190,
      "malley": 7191,
      "suspicious": 7192,
      "pace": 7193,
      "wendell": 7194,
      "sneak": 7195,
      "cable": 7196,
      "dary": 7197,
      "hated": 7198,
      "mand": 7199,
      "##lection": 7200,
      "review": 7201,
      "stall": 7202,
      "crit": 7203,
      "hopefully": 7204,
      "##sed": 7205,
      "noises": 7206,
      "wipes": 7207,
      "##inton": 7208,
      "radiation": 7209,
      "footage": 7210,
      "solid": 7211,
      "convinced": 7212,
      "abigail": 7213,
      "##dale": 7214,
      "enjo": 7215,
      "merry": 7216,
      "jenkins": 7217,
      "##axy": 7218,
      "calif": 7219,
      "beauty": 7220,
      "distracted": 7221,
      "woke": 7222,
      "ze": 7223,
      "##eston": 7224,
      "##~~~~~~~~": 7225,
      "trailer": 7226,
      "californ": 7227,
      "rips": 7228,
      "melan": 7229,
      "##pan": 7230,
      "boom": 7231,
      "courty": 7232,
      "examine": 7233,
      "enjoying": 7234,
      "baker": 7235,
      "##cro": 7236,
      "##fly": 7237,
      "beating": 7238,
      "outfit": 7239,
      "suz": 7240,
      "flame": 7241,
      "understanding": 7242,
      "skeleton": 7243,
      "sunday": 7244,
      "rash": 7245,
      "sire": 7246,
      "##gment": 7247,
      "##eday": 7248,
      "##omm": 7249,
      "##amps": 7250,
      "chances": 7251,
      "arc": 7252,
      "louder": 7253,
      "example": 7254,
      "procedure": 7255,
      "pear": 7256,
      "##lor": 7257,
      "##iving": 7258,
      "courtyard": 7259,
      "batter": 7260,
      "inse": 7261,
      "yourselves": 7262,
      "tale": 7263,
      "birds": 7264,
      "capsule": 7265,
      "available": 7266,
      "states": 7267,
      "wasting": 7268,
      "clue": 7269,
      "cutler": 7270,
      "someday": 7271,
      "gradu": 7272,
      "omega": 7273,
      "goodness": 7274,
      "perry": 7275,
      "clearing": 7276,
      "messages": 7277,
      "classic": 7278,
      "bellick": 7279,
      "puzzled": 7280,
      "lancelot": 7281,
      "##fact": 7282,
      "##orney": 7283,
      "greet": 7284,
      "writes": 7285,
      "stephen": 7286,
      "entry": 7287,
      "column": 7288,
      "extermin": 7289,
      "daryl": 7290,
      "##eds": 7291,
      "cheering": 7292,
      "attorney": 7293,
      "rolling": 7294,
      "balance": 7295,
      "inject": 7296,
      "##una": 7297,
      "understood": 7298,
      "caitlin": 7299,
      "lame": 7300,
      "dozen": 7301,
      "chips": 7302,
      "scope": 7303,
      "slips": 7304,
      "madeline": 7305,
      "soup": 7306,
      "poster": 7307,
      "terrified": 7308,
      "rani": 7309,
      "aliens": 7310,
      "rome": 7311,
      "##icles": 7312,
      "compound": 7313,
      "technically": 7314,
      "midnight": 7315,
      "##ees": 7316,
      "alf": 7317,
      "paramed": 7318,
      "counting": 7319,
      "freaking": 7320,
      "servant": 7321,
      "statement": 7322,
      "footsteps": 7323,
      "ree": 7324,
      "gosh": 7325,
      "younger": 7326,
      "grounds": 7327,
      "hack": 7328,
      "choo": 7329,
      "clothing": 7330,
      "escaped": 7331,
      "laser": 7332,
      "emotional": 7333,
      "nons": 7334,
      "##berry": 7335,
      "california": 7336,
      "##path": 7337,
      "##asant": 7338,
      "boots": 7339,
      "rejoins": 7340,
      "sip": 7341,
      "wise": 7342,
      "##lar": 7343,
      "##ener": 7344,
      "##etta": 7345,
      "hailey": 7346,
      "offers": 7347,
      "hesitates": 7348,
      "lola": 7349,
      "##ha": 7350,
      "annie": 7351,
      "jeep": 7352,
      "occur": 7353,
      "nicholas": 7354,
      "cd": 7355,
      "roo": 7356,
      "trade": 7357,
      "tricks": 7358,
      "landed": 7359,
      "electron": 7360,
      "wounds": 7361,
      "amel": 7362,
      "removed": 7363,
      "pouring": 7364,
      "version": 7365,
      "piano": 7366,
      "##bling": 7367,
      "hazel": 7368,
      "unus": 7369,
      "##ships": 7370,
      "travis": 7371,
      "wheelchair": 7372,
      "spill": 7373,
      "michelle": 7374,
      "dennis": 7375,
      "##ulf": 7376,
      "apo": 7377,
      "specific": 7378,
      "pity": 7379,
      "typ": 7380,
      "jap": 7381,
      "lack": 7382,
      "nasty": 7383,
      "sd": 7384,
      "##ari": 7385,
      "sniffs": 7386,
      "pel": 7387,
      "##erie": 7388,
      "##tering": 7389,
      "marie": 7390,
      "suite": 7391,
      "spect": 7392,
      "kidney": 7393,
      "string": 7394,
      "pacing": 7395,
      "presence": 7396,
      "etern": 7397,
      "##zer": 7398,
      "coven": 7399,
      "bottles": 7400,
      "snap": 7401,
      "sharon": 7402,
      "facility": 7403,
      "false": 7404,
      "coincidence": 7405,
      "##aries": 7406,
      "##elson": 7407,
      "twee": 7408,
      "surgeon": 7409,
      "confident": 7410,
      "advantage": 7411,
      "##rac": 7412,
      "liar": 7413,
      "loving": 7414,
      "narrow": 7415,
      "citiz": 7416,
      "dewey": 7417,
      "claw": 7418,
      "grass": 7419,
      "erica": 7420,
      "##dding": 7421,
      "wears": 7422,
      "estate": 7423,
      "spanish": 7424,
      "##quarters": 7425,
      "circumst": 7426,
      "chess": 7427,
      "pole": 7428,
      "casino": 7429,
      "sometime": 7430,
      "majin": 7431,
      "mistakes": 7432,
      "aims": 7433,
      "##giving": 7434,
      "japan": 7435,
      "##li": 7436,
      "##osen": 7437,
      "dell": 7438,
      "waited": 7439,
      "##pert": 7440,
      "speeds": 7441,
      "whoosh": 7442,
      "grateful": 7443,
      "wha": 7444,
      "diagnost": 7445,
      "divorce": 7446,
      "underwear": 7447,
      "26": 7448,
      "tack": 7449,
      "webs": 7450,
      "label": 7451,
      "crypt": 7452,
      "coffin": 7453,
      "##ua": 7454,
      "##vere": 7455,
      "##oying": 7456,
      "nod": 7457,
      "sull": 7458,
      "spark": 7459,
      "challen": 7460,
      "fib": 7461,
      "##inky": 7462,
      "secure": 7463,
      "hearst": 7464,
      "precious": 7465,
      "wand": 7466,
      "hoyt": 7467,
      "hearts": 7468,
      "cellar": 7469,
      "legend": 7470,
      "miracle": 7471,
      "claps": 7472,
      "comment": 7473,
      "##ption": 7474,
      "recomm": 7475,
      "##hhhh": 7476,
      "grip": 7477,
      "chosen": 7478,
      "officially": 7479,
      "cyrus": 7480,
      "kathy": 7481,
      "ot": 7482,
      "agrav": 7483,
      "glance": 7484,
      "patmore": 7485,
      "instr": 7486,
      "winning": 7487,
      "turkey": 7488,
      "slee": 7489,
      "dumped": 7490,
      "abruzzi": 7491,
      "europe": 7492,
      "thrill": 7493,
      "handed": 7494,
      "grew": 7495,
      "mug": 7496,
      "returning": 7497,
      "hyd": 7498,
      "coughing": 7499,
      "administ": 7500,
      "nonsense": 7501,
      "##mor": 7502,
      "seer": 7503,
      "groo": 7504,
      "dressing": 7505,
      "engaged": 7506,
      "##lings": 7507,
      "dopp": 7508,
      "potential": 7509,
      "wheels": 7510,
      "tracking": 7511,
      "packer": 7512,
      "announce": 7513,
      "aisle": 7514,
      "gain": 7515,
      "##bble": 7516,
      "##11": 7517,
      "entirely": 7518,
      "freddie": 7519,
      "product": 7520,
      "reverend": 7521,
      "27": 7522,
      "scri": 7523,
      "hallow": 7524,
      "milo": 7525,
      "machines": 7526,
      "au": 7527,
      "zank": 7528,
      "joined": 7529,
      "contest": 7530,
      "swab": 7531,
      "treated": 7532,
      "##vieve": 7533,
      "agravaine": 7534,
      "marc": 7535,
      "sentence": 7536,
      "stealing": 7537,
      "genevieve": 7538,
      "zankou": 7539,
      "##wright": 7540,
      "tob": 7541,
      "##eler": 7542,
      "beat": 7543,
      "##sem": 7544,
      "...(": 7545,
      "learning": 7546,
      "belongs": 7547,
      "##egal": 7548,
      "tradition": 7549,
      "miserable": 7550,
      "##alysis": 7551,
      "aj": 7552,
      "mri": 7553,
      "yup": 7554,
      "ank": 7555,
      "##idel": 7556,
      "raven": 7557,
      "astrid": 7558,
      "ecklie": 7559,
      "wander": 7560,
      "abba": 7561,
      "sail": 7562,
      "monday": 7563,
      "##ordin": 7564,
      "closely": 7565,
      "paces": 7566,
      "inspect": 7567,
      "jumping": 7568,
      "senator": 7569,
      "taxi": 7570,
      "##aded": 7571,
      "terms": 7572,
      "figures": 7573,
      "operating": 7574,
      "rude": 7575,
      "##uh": 7576,
      "tool": 7577,
      "##iece": 7578,
      "gaze": 7579,
      "repair": 7580,
      "normally": 7581,
      "stella": 7582,
      "concl": 7583,
      "headquarters": 7584,
      "result": 7585,
      "defend": 7586,
      "niles": 7587,
      "##oman": 7588,
      "rear": 7589,
      "adop": 7590,
      "##anced": 7591,
      "ski": 7592,
      "tunnels": 7593,
      "motorcy": 7594,
      "bristow": 7595,
      "##ector": 7596,
      "manip": 7597,
      "arguing": 7598,
      "annoying": 7599,
      "majesty": 7600,
      "levels": 7601,
      "cindy": 7602,
      "jaw": 7603,
      "##oops": 7604,
      "##ston": 7605,
      "recording": 7606,
      "sidney": 7607,
      "fought": 7608,
      "tort": 7609,
      "sequ": 7610,
      "##eak": 7611,
      "glen": 7612,
      "restra": 7613,
      "##lessly": 7614,
      "denny": 7615,
      "asks": 7616,
      "guar": 7617,
      "placed": 7618,
      "fingerpr": 7619,
      "defeat": 7620,
      "##las": 7621,
      "anderson": 7622,
      "kier": 7623,
      "ral": 7624,
      "height": 7625,
      "pled": 7626,
      "pros": 7627,
      "skip": 7628,
      "##zzy": 7629,
      "useful": 7630,
      "entertain": 7631,
      "colour": 7632,
      "satell": 7633,
      "28": 7634,
      "lupton": 7635,
      "glor": 7636,
      "testing": 7637,
      "collection": 7638,
      "##bie": 7639,
      "##rees": 7640,
      "##uss": 7641,
      "stir": 7642,
      "saf": 7643,
      "##anged": 7644,
      "thanksgiving": 7645,
      "whim": 7646,
      "minds": 7647,
      "termin": 7648,
      "emotion": 7649,
      "dumps": 7650,
      "sel": 7651,
      "~~~~~~~~~": 7652,
      "instructions": 7653,
      "bunk": 7654,
      "joking": 7655,
      "hurting": 7656,
      "metrop": 7657,
      "reaching": 7658,
      "##known": 7659,
      "##mber": 7660,
      "tap": 7661,
      "guide": 7662,
      "feeny": 7663,
      "attitude": 7664,
      "silently": 7665,
      "visual": 7666,
      "##attering": 7667,
      "bik": 7668,
      "ned": 7669,
      "##ded": 7670,
      "thurs": 7671,
      "##erc": 7672,
      "##esar": 7673,
      "julia": 7674,
      "cheerlead": 7675,
      "unbelievable": 7676,
      "hast": 7677,
      "kath": 7678,
      "pony": 7679,
      "conse": 7680,
      "option": 7681,
      "route": 7682,
      "guarant": 7683,
      "##tin": 7684,
      "##ati": 7685,
      "##isc": 7686,
      "##chant": 7687,
      "sobbing": 7688,
      "entered": 7689,
      "198": 7690,
      "receptionist": 7691,
      "authority": 7692,
      "current": 7693,
      "thursday": 7694,
      "500": 7695,
      "corpse": 7696,
      "##pector": 7697,
      "instinct": 7698,
      "transcribed": 7699,
      "197": 7700,
      "groaning": 7701,
      "gentleman": 7702,
      "rapid": 7703,
      "argument": 7704,
      "channel": 7705,
      "##ja": 7706,
      "##etically": 7707,
      "impat": 7708,
      "presents": 7709,
      "',": 7710,
      "lever": 7711,
      "wherever": 7712,
      "peers": 7713,
      "benj": 7714,
      "events": 7715,
      "freezes": 7716,
      "destro": 7717,
      "engage": 7718,
      "##master": 7719,
      "succeed": 7720,
      "##bar": 7721,
      "stahl": 7722,
      "##amus": 7723,
      "rights": 7724,
      "players": 7725,
      "snatch": 7726,
      "producer": 7727,
      "custody": 7728,
      "clerk": 7729,
      "rture": 7730,
      "##mates": 7731,
      "outer": 7732,
      "##elled": 7733,
      "spar": 7734,
      "bites": 7735,
      "briefcase": 7736,
      "ault": 7737,
      "smooth": 7738,
      "siren": 7739,
      "fiance": 7740,
      "cupboard": 7741,
      "affair": 7742,
      "released": 7743,
      "kicking": 7744,
      "rit": 7745,
      "##igan": 7746,
      "served": 7747,
      "items": 7748,
      "nelson": 7749,
      "##bl": 7750,
      "shines": 7751,
      "##imer": 7752,
      "chains": 7753,
      "wrest": 7754,
      "##ivan": 7755,
      "inspector": 7756,
      "expensive": 7757,
      "technician": 7758,
      "melanie": 7759,
      "tad": 7760,
      "##bled": 7761,
      "##lle": 7762,
      "smirks": 7763,
      "pond": 7764,
      "##hy": 7765,
      "##vement": 7766,
      "##imm": 7767,
      "chasing": 7768,
      "##rot": 7769,
      "patrol": 7770,
      "impression": 7771,
      "spoken": 7772,
      "introduce": 7773,
      "eats": 7774,
      "##vic": 7775,
      "sticking": 7776,
      "samples": 7777,
      "possibility": 7778,
      "popular": 7779,
      "bald": 7780,
      "vacation": 7781,
      "wreck": 7782,
      "mile": 7783,
      "intercom": 7784,
      "reluct": 7785,
      "trusted": 7786,
      "accompl": 7787,
      "fest": 7788,
      "ratt": 7789,
      "##mail": 7790,
      "acqu": 7791,
      "##ucle": 7792,
      "sphere": 7793,
      "argue": 7794,
      "unst": 7795,
      "handsome": 7796,
      "relig": 7797,
      "studies": 7798,
      "briefly": 7799,
      "lance": 7800,
      "thumb": 7801,
      "engin": 7802,
      "dragged": 7803,
      "loses": 7804,
      "wings": 7805,
      "##we": 7806,
      "cheap": 7807,
      "dram": 7808,
      "workers": 7809,
      "eleven": 7810,
      "concentrate": 7811,
      "bind": 7812,
      "doe": 7813,
      "electricity": 7814,
      "coroner": 7815,
      "monsters": 7816,
      "hides": 7817,
      "mvo": 7818,
      "zod": 7819,
      "herm": 7820,
      "flow": 7821,
      "retrie": 7822,
      "freaked": 7823,
      "behavior": 7824,
      "refri": 7825,
      "frag": 7826,
      "mae": 7827,
      "guine": 7828,
      "louis": 7829,
      "salamander": 7830,
      "jury": 7831,
      "zel": 7832,
      "##inda": 7833,
      "coast": 7834,
      "unp": 7835,
      "steady": 7836,
      "##quet": 7837,
      "gallery": 7838,
      "unusual": 7839,
      "refriger": 7840,
      "task": 7841,
      "##anks": 7842,
      "...!": 7843,
      "disbel": 7844,
      "received": 7845,
      "rarity": 7846,
      "disbelief": 7847,
      "babe": 7848,
      "vial": 7849,
      "seek": 7850,
      "unknown": 7851,
      "glove": 7852,
      "hij": 7853,
      "indust": 7854,
      "##oids": 7855,
      "smashes": 7856,
      "ramb": 7857,
      "theat": 7858,
      "patter": 7859,
      "collar": 7860,
      "bert": 7861,
      "judy": 7862,
      "bernard": 7863,
      "fascinating": 7864,
      "heck": 7865,
      "contents": 7866,
      "sorcer": 7867,
      "chew": 7868,
      "eyed": 7869,
      "minor": 7870,
      "papa": 7871,
      "franklin": 7872,
      "miranda": 7873,
      "buttons": 7874,
      "nucle": 7875,
      "##erd": 7876,
      "catching": 7877,
      "crashes": 7878,
      "gown": 7879,
      "goodnight": 7880,
      "buff": 7881,
      "movement": 7882,
      "element": 7883,
      "solve": 7884,
      "solution": 7885,
      "teaching": 7886,
      "considered": 7887,
      "bracelet": 7888,
      "~~~~~~~~~~": 7889,
      "bing": 7890,
      "stag": 7891,
      "proph": 7892,
      "confir": 7893,
      "landry": 7894,
      "purple": 7895,
      "branch": 7896,
      "thud": 7897,
      "tessa": 7898,
      "lenn": 7899,
      "vag": 7900,
      "##mont": 7901,
      "value": 7902,
      "vega": 7903,
      "cookies": 7904,
      "unable": 7905,
      "misses": 7906,
      "homework": 7907,
      "sends": 7908,
      "technology": 7909,
      "fortune": 7910,
      "initi": 7911,
      "therapy": 7912,
      "##rr": 7913,
      "##lee": 7914,
      "##lyn": 7915,
      "##stone": 7916,
      "jody": 7917,
      "foyer": 7918,
      "parties": 7919,
      "horrif": 7920,
      "196": 7921,
      "federal": 7922,
      "metropolis": 7923,
      "gorge": 7924,
      "##x0": 7925,
      "thum": 7926,
      "inqu": 7927,
      "suits": 7928,
      "acid": 7929,
      "activity": 7930,
      "reverse": 7931,
      "society": 7932,
      "bost": 7933,
      "nim": 7934,
      "##ilies": 7935,
      "conven": 7936,
      "flut": 7937,
      "flick": 7938,
      "humili": 7939,
      "instit": 7940,
      "loser": 7941,
      "betrayed": 7942,
      "holtz": 7943,
      "guinevere": 7944,
      "##nel": 7945,
      "ing": 7946,
      "cameras": 7947,
      "grinning": 7948,
      "fills": 7949,
      "torn": 7950,
      "##uits": 7951,
      "##reg": 7952,
      "lean": 7953,
      "straw": 7954,
      "admir": 7955,
      "document": 7956,
      "##burg": 7957,
      "junior": 7958,
      "multiple": 7959,
      "pi": 7960,
      "vest": 7961,
      "powder": 7962,
      "nightmare": 7963,
      "rib": 7964,
      "##po": 7965,
      "breathes": 7966,
      "directed": 7967,
      "embarrassing": 7968,
      "disgusting": 7969,
      "pra": 7970,
      "penn": 7971,
      "##iber": 7972,
      "clu": 7973,
      "dex": 7974,
      "waist": 7975,
      "happiness": 7976,
      "dunno": 7977,
      "hugo": 7978,
      "urs": 7979,
      "carried": 7980,
      "##agra": 7981,
      "bare": 7982,
      "terror": 7983,
      "brains": 7984,
      "##________": 7985,
      "kw": 7986,
      "mud": 7987,
      "ry": 7988,
      "tire": 7989,
      "dod": 7990,
      "france": 7991,
      "##arts": 7992,
      "##ission": 7993,
      "prime": 7994,
      "##asses": 7995,
      "protest": 7996,
      "rounds": 7997,
      "mobile": 7998,
      "32": 7999,
      "blown": 8000,
      "syring": 8001,
      "rising": 8002,
      "sharply": 8003,
      "hire": 8004,
      "gras": 8005,
      "raising": 8006,
      "miller": 8007,
      "emerges": 8008,
      "construction": 8009,
      "virus": 8010,
      "daily": 8011,
      "dea": 8012,
      "intense": 8013,
      "budd": 8014,
      "narration": 8015,
      "dab": 8016,
      "hq": 8017,
      "ker": 8018,
      "rare": 8019,
      "rein": 8020,
      "salad": 8021,
      "massive": 8022,
      "henderson": 8023,
      "ursula": 8024,
      "stap": 8025,
      "role": 8026,
      "exerc": 8027,
      "descri": 8028,
      "trained": 8029,
      "mindy": 8030,
      "muffled": 8031,
      "determined": 8032,
      "eug": 8033,
      "##atters": 8034,
      "reed": 8035,
      "gob": 8036,
      "##istent": 8037,
      "christian": 8038,
      "##rington": 8039,
      "feeding": 8040,
      "effects": 8041,
      "elders": 8042,
      "impatient": 8043,
      "til": 8044,
      "##oned": 8045,
      "##owitz": 8046,
      "nodding": 8047,
      "lords": 8048,
      "##berg": 8049,
      "incident": 8050,
      "winter": 8051,
      "aur": 8052,
      "dd": 8053,
      "##oul": 8054,
      "##riel": 8055,
      "bride": 8056,
      "carpet": 8057,
      "underworld": 8058,
      "regard": 8059,
      "strikes": 8060,
      "offering": 8061,
      "unhapp": 8062,
      "despite": 8063,
      "challenge": 8064,
      "29": 8065,
      "##ift": 8066,
      "##iwell": 8067,
      "stumbles": 8068,
      "##beat": 8069,
      "chuckling": 8070,
      "prevent": 8071,
      "appointment": 8072,
      "ara": 8073,
      "sheets": 8074,
      "soda": 8075,
      "assure": 8076,
      "ded": 8077,
      "##esc": 8078,
      "##keep": 8079,
      "##entin": 8080,
      "drue": 8081,
      "swan": 8082,
      "highly": 8083,
      "##what": 8084,
      "retre": 8085,
      "england": 8086,
      "scrub": 8087,
      "weakness": 8088,
      "halloween": 8089,
      "##raw": 8090,
      "backpack": 8091,
      "plates": 8092,
      "depos": 8093,
      "nerve": 8094,
      "driveway": 8095,
      "deserves": 8096,
      "ssile": 8097,
      "mordred": 8098,
      "ou": 8099,
      "agency": 8100,
      "messed": 8101,
      "paperwork": 8102,
      "granny": 8103,
      "assuming": 8104,
      "hammer": 8105,
      "(...": 8106,
      "##uary": 8107,
      "##inter": 8108,
      "fox": 8109,
      "facts": 8110,
      "eaten": 8111,
      "duke": 8112,
      "identity": 8113,
      "incredibly": 8114,
      "cups": 8115,
      "achie": 8116,
      "dut": 8117,
      "gurn": 8118,
      "##otic": 8119,
      "advance": 8120,
      "suitcase": 8121,
      "murphy": 8122,
      "ceremony": 8123,
      "represent": 8124,
      "jor": 8125,
      "bol": 8126,
      "offense": 8127,
      "realises": 8128,
      "confront": 8129,
      "haired": 8130,
      "apology": 8131,
      "piccol": 8132,
      "sullivan": 8133,
      "dat": 8134,
      "##iture": 8135,
      "angels": 8136,
      "comprom": 8137,
      "impala": 8138,
      "amelia": 8139,
      "gurney": 8140,
      "piccolo": 8141,
      "##inal": 8142,
      "wilder": 8143,
      "backup": 8144,
      "adult": 8145,
      "sounded": 8146,
      "potato": 8147,
      "morgue": 8148,
      "knights": 8149,
      "champion": 8150,
      "sings": 8151,
      "cord": 8152,
      "impact": 8153,
      "airl": 8154,
      "kenn": 8155,
      "##ighter": 8156,
      "partners": 8157,
      "wynn": 8158,
      "mummy": 8159,
      "attempts": 8160,
      "hudson": 8161,
      "neighborhood": 8162,
      "circumstances": 8163,
      "eugene": 8164,
      "yay": 8165,
      "belly": 8166,
      "axe": 8167,
      "vom": 8168,
      "vall": 8169,
      "noah": 8170,
      "plain": 8171,
      "advent": 8172,
      "rubbing": 8173,
      "satisfied": 8174,
      "hep": 8175,
      "phones": 8176,
      "spoon": 8177,
      "gia": 8178,
      "coin": 8179,
      "quentin": 8180,
      "##ishes": 8181,
      "gods": 8182,
      "lightning": 8183,
      "devon": 8184,
      "##ification": 8185,
      "gesture": 8186,
      "supre": 8187,
      "shepherd": 8188,
      "gavin": 8189,
      "kro": 8190,
      "##iron": 8191,
      "sully": 8192,
      "##stick": 8193,
      "warlock": 8194,
      "editor": 8195,
      "painful": 8196,
      "homeless": 8197,
      "aurora": 8198,
      "servants": 8199,
      "35": 8200,
      "kaz": 8201,
      "dock": 8202,
      "forms": 8203,
      "kinds": 8204,
      "struct": 8205,
      "##ivers": 8206,
      "families": 8207,
      "hundreds": 8208,
      "##angs": 8209,
      "recall": 8210,
      "decent": 8211,
      "mouths": 8212,
      "refuse": 8213,
      "ralph": 8214,
      "##antically": 8215,
      "british": 8216,
      "andrea": 8217,
      "pant": 8218,
      "vin": 8219,
      "reject": 8220,
      "sport": 8221,
      "email": 8222,
      "packed": 8223,
      "continued": 8224,
      "desperately": 8225,
      "motorcycle": 8226,
      "ald": 8227,
      "##tery": 8228,
      "assass": 8229,
      "decis": 8230,
      "cleared": 8231,
      "spinning": 8232,
      "glowing": 8233,
      "sarcastically": 8234,
      "vul": 8235,
      "morph": 8236,
      "sons": 8237,
      "absor": 8238,
      "gorgeous": 8239,
      "31": 8240,
      "fu": 8241,
      "rage": 8242,
      "##vor": 8243,
      "nost": 8244,
      "penis": 8245,
      "growls": 8246,
      "climbing": 8247,
      "accidentally": 8248,
      "occasion": 8249,
      "corporal": 8250,
      "furniture": 8251,
      "dj": 8252,
      "##aves": 8253,
      "##andra": 8254,
      "supplies": 8255,
      "drain": 8256,
      "199": 8257,
      "fluid": 8258,
      "jet": 8259,
      "##aday": 8260,
      "exasper": 8261,
      "phee": 8262,
      "##ulan": 8263,
      "bless": 8264,
      "talent": 8265,
      "craft": 8266,
      "artist": 8267,
      "irrit": 8268,
      "aust": 8269,
      "bushes": 8270,
      "ping": 8271,
      "radar": 8272,
      "matches": 8273,
      "gifts": 8274,
      "delicious": 8275,
      "satellite": 8276,
      "alec": 8277,
      "##leen": 8278,
      "##itis": 8279,
      "strides": 8280,
      "exposed": 8281,
      "dickie": 8282,
      "frobish": 8283,
      "options": 8284,
      "kellerman": 8285,
      "benjamin": 8286,
      "frobisher": 8287,
      "actor": 8288,
      "##adon": 8289,
      "##essa": 8290,
      "##ability": 8291,
      "apply": 8292,
      "remembered": 8293,
      "smaller": 8294,
      "reflection": 8295,
      "wipe": 8296,
      "bread": 8297,
      "rocky": 8298,
      "staircase": 8299,
      "patterson": 8300,
      "tips": 8301,
      "##str": 8302,
      "##angel": 8303,
      "cheating": 8304,
      "thousands": 8305,
      "environ": 8306,
      "\"...": 8307,
      "sinc": 8308,
      "##uable": 8309,
      "anton": 8310,
      "chop": 8311,
      "recent": 8312,
      "##hhh": 8313,
      "hybr": 8314,
      "accepted": 8315,
      "mitchell": 8316,
      "bangs": 8317,
      "successful": 8318,
      "crouches": 8319,
      "dip": 8320,
      "trench": 8321,
      "hobson": 8322,
      "educ": 8323,
      "ripped": 8324,
      "boston": 8325,
      "fet": 8326,
      "##rical": 8327,
      "##cci": 8328,
      "blair": 8329,
      "flip": 8330,
      "waking": 8331,
      "##udge": 8332,
      "disaster": 8333,
      "charmed": 8334,
      "horses": 8335,
      "rhy": 8336,
      "##vant": 8337,
      "##word": 8338,
      "greater": 8339,
      "warned": 8340,
      "halt": 8341,
      "##olution": 8342,
      "identify": 8343,
      "fugo": 8344,
      "].": 8345,
      "vart": 8346,
      "##usa": 8347,
      "chunk": 8348,
      "ghosts": 8349,
      "nest": 8350,
      "rides": 8351,
      "nov": 8352,
      "##riet": 8353,
      "somewhat": 8354,
      "lloy": 8355,
      "houses": 8356,
      "moder": 8357,
      "capes": 8358,
      "confess": 8359,
      "hyper": 8360,
      "garrett": 8361,
      "quarters": 8362,
      "##corp": 8363,
      "02": 8364,
      "fuel": 8365,
      "##idents": 8366,
      "scor": 8367,
      "unb": 8368,
      "wayne": 8369,
      "##agers": 8370,
      "services": 8371,
      "properly": 8372,
      "cautiously": 8373,
      "ment": 8374,
      "sny": 8375,
      "##nat": 8376,
      "drags": 8377,
      "yeti": 8378,
      "wrap": 8379,
      "lloyd": 8380,
      "ling": 8381,
      "##xie": 8382,
      "##thaz": 8383,
      "wires": 8384,
      "assem": 8385,
      "backward": 8386,
      "fights": 8387,
      "##ovan": 8388,
      "frost": 8389,
      "pheebs": 8390,
      "faint": 8391,
      "lung": 8392,
      "##eed": 8393,
      "##zil": 8394,
      "trem": 8395,
      "filling": 8396,
      "survived": 8397,
      "fantasy": 8398,
      "mexico": 8399,
      "tweek": 8400,
      "snyder": 8401,
      "dow": 8402,
      "jell": 8403,
      "##usi": 8404,
      "intr": 8405,
      "serial": 8406,
      "auto": 8407,
      "strangers": 8408,
      "influ": 8409,
      "syringe": 8410,
      "leery": 8411,
      "anytime": 8412,
      "org": 8413,
      "confusion": 8414,
      "terr": 8415,
      "collins": 8416,
      "ignores": 8417,
      "shifts": 8418,
      "gag": 8419,
      "kitty": 8420,
      "oak": 8421,
      "troll": 8422,
      "##ooo": 8423,
      "frantically": 8424,
      "halliwell": 8425,
      "typing": 8426,
      "victory": 8427,
      "gasp": 8428,
      "salesman": 8429,
      "temperature": 8430,
      "tumor": 8431,
      "environment": 8432,
      "!”": 8433,
      "01": 8434,
      "##aah": 8435,
      "##umber": 8436,
      "beta": 8437,
      "merely": 8438,
      "halfway": 8439,
      "ignoring": 8440,
      "communicator": 8441,
      "swallows": 8442,
      "consequ": 8443,
      "##lon": 8444,
      "tracy": 8445,
      "##ashed": 8446,
      "perman": 8447,
      "evelyn": 8448,
      "decides": 8449,
      "joshua": 8450,
      "competition": 8451,
      "##maker": 8452,
      "reun": 8453,
      "intend": 8454,
      "glitz": 8455,
      "harper": 8456,
      "shelter": 8457,
      "exhausted": 8458,
      "bac": 8459,
      "pp": 8460,
      "##low": 8461,
      "##thusi": 8462,
      "united": 8463,
      "##velt": 8464,
      "approp": 8465,
      "silur": 8466,
      "sucked": 8467,
      "injured": 8468,
      "vartann": 8469,
      "roose": 8470,
      "##ories": 8471,
      "noticing": 8472,
      "bolt": 8473,
      "moore": 8474,
      "steel": 8475,
      "desire": 8476,
      "##ifying": 8477,
      "bills": 8478,
      "negot": 8479,
      ",…": 8480,
      "##ele": 8481,
      "##atically": 8482,
      "robe": 8483,
      "walsh": 8484,
      "mock": 8485,
      "serena": 8486,
      "finishing": 8487,
      "jewel": 8488,
      "suffering": 8489,
      "handcuffs": 8490,
      "zelena": 8491,
      "roosevelt": 8492,
      "bish": 8493,
      "coma": 8494,
      "considers": 8495,
      "visible": 8496,
      "ellis": 8497,
      "straightens": 8498,
      "selfish": 8499,
      "length": 8500,
      "##good": 8501,
      "inch": 8502,
      "sauce": 8503,
      "enchant": 8504,
      "caves": 8505,
      "##arez": 8506,
      "laws": 8507,
      "experien": 8508,
      "fishing": 8509,
      "courtney": 8510,
      "leslie": 8511,
      "stern": 8512,
      "species": 8513,
      "pirate": 8514,
      "##secut": 8515,
      "conce": 8516,
      "scoo": 8517,
      "courage": 8518,
      "paran": 8519,
      "aww": 8520,
      "classes": 8521,
      "jillian": 8522,
      "jee": 8523,
      "cargo": 8524,
      "standard": 8525,
      "applic": 8526,
      "cellphone": 8527,
      "##bbed": 8528,
      "shovel": 8529,
      "mysterious": 8530,
      "dated": 8531,
      "##iance": 8532,
      "##zard": 8533,
      "##istry": 8534,
      "timing": 8535,
      "waving": 8536,
      "crown": 8537,
      "poker": 8538,
      "tamara": 8539,
      "virginia": 8540,
      "vastra": 8541,
      "44": 8542,
      "goo": 8543,
      "league": 8544,
      "slap": 8545,
      "boner": 8546,
      "valerie": 8547,
      "##coming": 8548,
      "swallow": 8549,
      "dates": 8550,
      "nina": 8551,
      "pand": 8552,
      "##ugs": 8553,
      "##inery": 8554,
      "alv": 8555,
      "spit": 8556,
      "recon": 8557,
      "remembers": 8558,
      "committ": 8559,
      "marked": 8560,
      "bucket": 8561,
      "hanson": 8562,
      "crisis": 8563,
      "diagnostics": 8564,
      "capeside": 8565,
      "aer": 8566,
      "bits": 8567,
      "rans": 8568,
      "##nic": 8569,
      "##yl": 8570,
      "dot": 8571,
      "isol": 8572,
      "seiz": 8573,
      "scans": 8574,
      "aggress": 8575,
      "cocks": 8576,
      "##aga": 8577,
      "resign": 8578,
      "schm": 8579,
      "cleaned": 8580,
      "illegal": 8581,
      "crashing": 8582,
      "portal": 8583,
      "fireplace": 8584,
      "barnes": 8585,
      "reck": 8586,
      "##adel": 8587,
      "##ancing": 8588,
      "##ivid": 8589,
      "committed": 8590,
      "signals": 8591,
      "holes": 8592,
      "odds": 8593,
      "counselor": 8594,
      "recommend": 8595,
      "supreme": 8596,
      "decisions": 8597,
      "fif": 8598,
      "wasted": 8599,
      "##elling": 8600,
      "lighter": 8601,
      "jerks": 8602,
      "astron": 8603,
      "routine": 8604,
      "aiden": 8605,
      "##isation": 8606,
      "##isely": 8607,
      "beacon": 8608,
      "ens": 8609,
      "pean": 8610,
      "##phere": 8611,
      "skagra": 8612,
      "trevor": 8613,
      "frankly": 8614,
      "judgment": 8615,
      "volch": 8616,
      "zb": 8617,
      "##!!": 8618,
      "##rete": 8619,
      "##urd": 8620,
      "intention": 8621,
      "talon": 8622,
      "helpful": 8623,
      "dismiss": 8624,
      "halluc": 8625,
      "frequ": 8626,
      "occup": 8627,
      "customers": 8628,
      "applejack": 8629,
      "##egr": 8630,
      "##ality": 8631,
      "beard": 8632,
      "##aki": 8633,
      "serving": 8634,
      "vanessa": 8635,
      "melinda": 8636,
      "choices": 8637,
      "pencil": 8638,
      "biopsy": 8639,
      "electronic": 8640,
      "shed": 8641,
      "ford": 8642,
      "marine": 8643,
      "trent": 8644,
      "singer": 8645,
      "broadcast": 8646,
      "##ras": 8647,
      "habit": 8648,
      "chir": 8649,
      "barrel": 8650,
      "angeles": 8651,
      "charity": 8652,
      "accoun": 8653,
      "temp": 8654,
      "sensitive": 8655,
      "encou": 8656,
      "sequence": 8657,
      "##lers": 8658,
      "photographs": 8659,
      "warriors": 8660,
      "tues": 8661,
      "allerg": 8662,
      "carmen": 8663,
      "##ipe": 8664,
      "crane": 8665,
      "##plest": 8666,
      "ashamed": 8667,
      "jacques": 8668,
      "##nament": 8669,
      "lecture": 8670,
      "kore": 8671,
      "wig": 8672,
      "tric": 8673,
      "incom": 8674,
      "ritual": 8675,
      "##oons": 8676,
      "##yers": 8677,
      "stool": 8678,
      "backyard": 8679,
      "albert": 8680,
      "tex": 8681,
      "corps": 8682,
      "merl": 8683,
      "prize": 8684,
      "60": 8685,
      "cue": 8686,
      "##mark": 8687,
      "chatter": 8688,
      "phase": 8689,
      "coordin": 8690,
      "bucci": 8691,
      "mercer": 8692,
      "##otta": 8693,
      "jamal": 8694,
      "resting": 8695,
      "investigate": 8696,
      "tuesday": 8697,
      "bucciar": 8698,
      "55": 8699,
      "il": 8700,
      "kil": 8701,
      "withd": 8702,
      "##anton": 8703,
      "##epend": 8704,
      "que": 8705,
      "palmer": 8706,
      "gathering": 8707,
      "clipboard": 8708,
      "theatre": 8709,
      "##osc": 8710,
      "propos": 8711,
      "policy": 8712,
      "muscle": 8713,
      "##umpy": 8714,
      "keyboard": 8715,
      "oooh": 8716,
      "sealed": 8717,
      "bunny": 8718,
      "bucciarati": 8719,
      "click": 8720,
      "pride": 8721,
      "uhm": 8722,
      "laz": 8723,
      "stuffed": 8724,
      "winner": 8725,
      "visiting": 8726,
      "vibr": 8727,
      "favourite": 8728,
      "quality": 8729,
      "administr": 8730,
      "busted": 8731,
      "lt": 8732,
      "wicked": 8733,
      "whir": 8734,
      "protocol": 8735,
      "millions": 8736,
      "wraps": 8737,
      "ordinary": 8738,
      "dissolve": 8739,
      "##croft": 8740,
      "ppth": 8741,
      "foun": 8742,
      "shaped": 8743,
      "reward": 8744,
      "alo": 8745,
      "related": 8746,
      "limit": 8747,
      "scenar": 8748,
      "attractive": 8749,
      "##nor": 8750,
      "##gt": 8751,
      "pharm": 8752,
      "struck": 8753,
      "collea": 8754,
      "colon": 8755,
      "avo": 8756,
      "janine": 8757,
      "infected": 8758,
      "dome": 8759,
      "ely": 8760,
      "nas": 8761,
      "atmos": 8762,
      "scal": 8763,
      "elimin": 8764,
      "damaged": 8765,
      "rail": 8766,
      "harbor": 8767,
      "depress": 8768,
      "millie": 8769,
      "relationships": 8770,
      "##aldi": 8771,
      "mccall": 8772,
      "stahlman": 8773,
      "##gie": 8774,
      "cody": 8775,
      "unw": 8776,
      "union": 8777,
      "syn": 8778,
      "sixty": 8779,
      "delay": 8780,
      "valuable": 8781,
      "particularly": 8782,
      "volchok": 8783,
      "mycroft": 8784,
      "##ppers": 8785,
      "joining": 8786,
      "##uled": 8787,
      "stepping": 8788,
      "##atern": 8789,
      "traitor": 8790,
      "harrison": 8791,
      "##avier": 8792,
      "campbell": 8793,
      "deny": 8794,
      "amongst": 8795,
      "script": 8796,
      "fountain": 8797,
      "whore": 8798,
      "chanting": 8799,
      "somethin": 8800,
      "clients": 8801,
      "jokes": 8802,
      "prepares": 8803,
      "guarantee": 8804,
      "bumps": 8805,
      "bever": 8806,
      "boh": 8807,
      "prote": 8808,
      "##assi": 8809,
      "images": 8810,
      "confidence": 8811,
      "fits": 8812,
      "appla": 8813,
      "shaw": 8814,
      "fifth": 8815,
      "core": 8816,
      "tut": 8817,
      "scru": 8818,
      "##ulty": 8819,
      "trips": 8820,
      "japanese": 8821,
      "engines": 8822,
      "zbz": 8823,
      "applaud": 8824,
      "##amm": 8825,
      "fornell": 8826,
      "lover": 8827,
      "cran": 8828,
      "destruction": 8829,
      "reminds": 8830,
      "provide": 8831,
      "avoiding": 8832,
      "##anov": 8833,
      "##ielle": 8834,
      "tran": 8835,
      "teaser": 8836,
      "##otted": 8837,
      "jumped": 8838,
      "notebook": 8839,
      "directions": 8840,
      "interrupted": 8841,
      "unlike": 8842,
      "recovery": 8843,
      "ew": 8844,
      "gates": 8845,
      "##bot": 8846,
      "tools": 8847,
      "##leon": 8848,
      "carstairs": 8849,
      "manner": 8850,
      "diary": 8851,
      "##rupt": 8852,
      "graduation": 8853,
      "##orted": 8854,
      "independ": 8855,
      "furious": 8856,
      "psycho": 8857,
      "faced": 8858,
      "seaver": 8859,
      "latest": 8860,
      "kidnapped": 8861,
      "sutton": 8862,
      "##natural": 8863,
      "bleep": 8864,
      "##you": 8865,
      "chill": 8866,
      "neat": 8867,
      "elise": 8868,
      "##ggy": 8869,
      "##phones": 8870,
      "danielle": 8871,
      "highway": 8872,
      "depressed": 8873,
      "olence": 8874,
      "hooked": 8875,
      "addresses": 8876,
      "specif": 8877,
      "lesterson": 8878,
      "nanny": 8879,
      "degree": 8880,
      "committee": 8881,
      "vess": 8882,
      "##foot": 8883,
      "analysis": 8884,
      "doom": 8885,
      "slut": 8886,
      "chuckle": 8887,
      "treating": 8888,
      "questioning": 8889,
      "monitors": 8890,
      "assumed": 8891,
      "),": 8892,
      "80": 8893,
      "ike": 8894,
      "zi": 8895,
      "##rina": 8896,
      "unlock": 8897,
      "winona": 8898,
      "immort": 8899,
      "##onym": 8900,
      "require": 8901,
      "rubber": 8902,
      "sunnydale": 8903,
      "horrified": 8904,
      "datab": 8905,
      "gus": 8906,
      "jr": 8907,
      "oven": 8908,
      "##gic": 8909,
      "andro": 8910,
      "stones": 8911,
      "beats": 8912,
      "fork": 8913,
      "billion": 8914,
      "ashe": 8915,
      "previous": 8916,
      "washington": 8917,
      "cassie": 8918,
      "microsc": 8919,
      "assignment": 8920,
      "degrassi": 8921,
      "concrete": 8922,
      "lur": 8923,
      "shy": 8924,
      "nothin": 8925,
      "##oted": 8926,
      "##otion": 8927,
      "mann": 8928,
      "##apes": 8929,
      "premon": 8930,
      "grabbed": 8931,
      "##ilda": 8932,
      "painted": 8933,
      "jeth": 8934,
      "coward": 8935,
      "sevent": 8936,
      "hans": 8937,
      "——": 8938,
      "##—–": 8939,
      "##imum": 8940,
      "##imately": 8941,
      "atl": 8942,
      "sock": 8943,
      "clent": 8944,
      "plot": 8945,
      "loretta": 8946,
      "railing": 8947,
      "flashing": 8948,
      "kira": 8949,
      "systems": 8950,
      "geez": 8951,
      "frustration": 8952,
      "———–": 8953,
      "36": 8954,
      "bot": 8955,
      "effy": 8956,
      "hah": 8957,
      "##bek": 8958,
      "ark": 8959,
      "boot": 8960,
      "newport": 8961,
      "robber": 8962,
      "persu": 8963,
      "nuclear": 8964,
      "puck": 8965,
      "wore": 8966,
      "##rade": 8967,
      "##pass": 8968,
      "##oit": 8969,
      "##uses": 8970,
      "##aman": 8971,
      "lew": 8972,
      "casual": 8973,
      "repeated": 8974,
      "cloud": 8975,
      "spa": 8976,
      "##ichi": 8977,
      "ador": 8978,
      "barrier": 8979,
      "robson": 8980,
      "signific": 8981,
      "recorder": 8982,
      "deserted": 8983,
      "violent": 8984,
      "widmore": 8985,
      "mixed": 8986,
      "##gana": 8987,
      "##char": 8988,
      "intent": 8989,
      "believes": 8990,
      "taron": 8991,
      "unsure": 8992,
      "banging": 8993,
      "##robe": 8994,
      "##rix": 8995,
      "conrad": 8996,
      "unex": 8997,
      "sammy": 8998,
      "throughout": 8999,
      "earn": 9000,
      "indian": 9001,
      "humanity": 9002,
      "reflect": 9003,
      "static": 9004,
      "designed": 9005,
      "##force": 9006,
      "ira": 9007,
      "jasper": 9008,
      "##oth": 9009,
      "stain": 9010,
      "##adem": 9011,
      "arnold": 9012,
      "tegana": 9013,
      "##owski": 9014,
      "recru": 9015,
      "reply": 9016,
      "insult": 9017,
      "centuries": 9018,
      "rushing": 9019,
      "##etti": 9020,
      "rays": 9021,
      "##guard": 9022,
      "kendra": 9023,
      "liquor": 9024,
      "biz": 9025,
      "races": 9026,
      "remark": 9027,
      "attacking": 9028,
      "nation": 9029,
      "##iat": 9030,
      "##esy": 9031,
      "forrest": 9032,
      "emil": 9033,
      "acceler": 9034,
      "instantly": 9035,
      "natasha": 9036,
      "sophia": 9037,
      "bows": 9038,
      "vital": 9039,
      "thief": 9040,
      "##arian": 9041,
      "enthusi": 9042,
      "blo": 9043,
      "cruel": 9044,
      "academ": 9045,
      "resident": 9046,
      "orderly": 9047,
      "suspects": 9048,
      "zoom": 9049,
      "osgood": 9050,
      "navy": 9051,
      "embrace": 9052,
      "refrigerator": 9053,
      "70": 9054,
      "ding": 9055,
      "begging": 9056,
      "cant": 9057,
      "connie": 9058,
      "lod": 9059,
      "mocking": 9060,
      "conserv": 9061,
      "##grid": 9062,
      "malcol": 9063,
      "luthorcorp": 9064,
      "bid": 9065,
      "bach": 9066,
      "##hole": 9067,
      "nolan": 9068,
      "##insky": 9069,
      "dism": 9070,
      "##maid": 9071,
      "eighteen": 9072,
      "##load": 9073,
      "whistle": 9074,
      "anxious": 9075,
      "tucker": 9076,
      "valley": 9077,
      "##onis": 9078,
      "##utation": 9079,
      "beings": 9080,
      "chic": 9081,
      "seattle": 9082,
      "myth": 9083,
      "scout": 9084,
      "grows": 9085,
      "##ortex": 9086,
      "extract": 9087,
      "lexie": 9088,
      "explode": 9089,
      "burger": 9090,
      "concert": 9091,
      "archit": 9092,
      "emotions": 9093,
      "kieran": 9094,
      "33": 9095,
      "bass": 9096,
      "sacks": 9097,
      "yuri": 9098,
      "##vy": 9099,
      "token": 9100,
      "overhead": 9101,
      "daph": 9102,
      "drama": 9103,
      "treasure": 9104,
      "calend": 9105,
      "zachar": 9106,
      "circles": 9107,
      "wounded": 9108,
      "photographer": 9109,
      "appropriate": 9110,
      "malcolm": 9111,
      "lan": 9112,
      "noble": 9113,
      "##usilla": 9114,
      "drusilla": 9115,
      "lawn": 9116,
      "georg": 9117,
      "consult": 9118,
      "computers": 9119,
      "profile": 9120,
      "experim": 9121,
      "flutter": 9122,
      "zachariah": 9123,
      "osw": 9124,
      "##yon": 9125,
      "##atus": 9126,
      "mavic": 9127,
      "caret": 9128,
      "keeper": 9129,
      "basic": 9130,
      "branson": 9131,
      "galaxy": 9132,
      "sarcastic": 9133,
      "degrees": 9134,
      "beef": 9135,
      "architect": 9136,
      "##iable": 9137,
      "##ryn": 9138,
      "leaps": 9139,
      "stream": 9140,
      "bells": 9141,
      "rambaldi": 9142,
      "hip": 9143,
      "mace": 9144,
      "session": 9145,
      "ye": 9146,
      "inches": 9147,
      "##urally": 9148,
      "plants": 9149,
      "adonis": 9150,
      "makeup": 9151,
      "markham": 9152,
      "grocer": 9153,
      "homic": 9154,
      "clarke": 9155,
      "injuries": 9156,
      "rror": 9157,
      "##ridge": 9158,
      "interfer": 9159,
      "garth": 9160,
      "franky": 9161,
      "reported": 9162,
      "constant": 9163,
      "rumplest": 9164,
      "referring": 9165,
      "foreign": 9166,
      "fetch": 9167,
      "##ckey": 9168,
      "##enance": 9169,
      "upside": 9170,
      "alexander": 9171,
      "dealer": 9172,
      "##iety": 9173,
      "sharing": 9174,
      "extreme": 9175,
      "##glasses": 9176,
      "insect": 9177,
      "typical": 9178,
      "pud": 9179,
      "began": 9180,
      "chame": 9181,
      "libby": 9182,
      "condo": 9183,
      "marvin": 9184,
      "blinks": 9185,
      "greek": 9186,
      "pipes": 9187,
      "resour": 9188,
      "menu": 9189,
      "tested": 9190,
      "expos": 9191,
      "electro": 9192,
      "suggesting": 9193,
      "indicate": 9194,
      "ninety": 9195,
      "puzzle": 9196,
      "daphne": 9197,
      "rumplestiltskin": 9198,
      "pike": 9199,
      "##utes": 9200,
      "##thern": 9201,
      "steam": 9202,
      "scientists": 9203,
      "scientific": 9204,
      "moles": 9205,
      "dv": 9206,
      "toys": 9207,
      "hugging": 9208,
      "reser": 9209,
      "rests": 9210,
      "pregnancy": 9211,
      "communications": 9212,
      "loaded": 9213,
      "remaining": 9214,
      "korean": 9215,
      "##rict": 9216,
      "analy": 9217,
      "##itated": 9218,
      "dah": 9219,
      "realizing": 9220,
      "minus": 9221,
      "barbas": 9222,
      "##hail": 9223,
      "stroll": 9224,
      "##ongron": 9225,
      "compass": 9226,
      "mulder": 9227,
      "instant": 9228,
      "irongron": 9229,
      "scramb": 9230,
      "murray": 9231,
      "unhappy": 9232,
      "42": 9233,
      "bait": 9234,
      "hint": 9235,
      "wade": 9236,
      "##rin": 9237,
      "lifet": 9238,
      "donovan": 9239,
      "cared": 9240,
      "skirt": 9241,
      "##ructor": 9242,
      "sweep": 9243,
      "wishes": 9244,
      "audition": 9245,
      "kneeling": 9246,
      "discussion": 9247,
      "witter": 9248,
      "unlocks": 9249,
      "cornish": 9250,
      "griffin": 9251,
      "album": 9252,
      "exterminate": 9253,
      "kwan": 9254,
      "mack": 9255,
      "miff": 9256,
      "root": 9257,
      "##ami": 9258,
      "##ishing": 9259,
      "##yster": 9260,
      "claud": 9261,
      "inhales": 9262,
      "altar": 9263,
      "brett": 9264,
      "sleeve": 9265,
      "bohannon": 9266,
      "calendar": 9267,
      "cats": 9268,
      "##bag": 9269,
      "##iven": 9270,
      "##thouse": 9271,
      "##ante": 9272,
      "##pps": 9273,
      "abdom": 9274,
      "invitation": 9275,
      "superior": 9276,
      "solar": 9277,
      "jersey": 9278,
      "swords": 9279,
      "exhib": 9280,
      "tightly": 9281,
      "tournament": 9282,
      "mikhail": 9283,
      "swimming": 9284,
      "exasperated": 9285,
      "##aternity": 9286,
      "ct": 9287,
      "cookie": 9288,
      "dang": 9289,
      "ginger": 9290,
      "ramp": 9291,
      "##rast": 9292,
      "##imeter": 9293,
      "conduct": 9294,
      "perkins": 9295,
      "centaur": 9296,
      "arriving": 9297,
      "deeper": 9298,
      "operator": 9299,
      "tann": 9300,
      "joint": 9301,
      "grief": 9302,
      "opie": 9303,
      "slipped": 9304,
      "sunglasses": 9305,
      "performance": 9306,
      "shelves": 9307,
      "ec": 9308,
      "sgt": 9309,
      "tany": 9310,
      "videl": 9311,
      "wain": 9312,
      "soap": 9313,
      "twins": 9314,
      "##plant": 9315,
      "##pective": 9316,
      "snip": 9317,
      "humor": 9318,
      "protected": 9319,
      "annivers": 9320,
      "engineer": 9321,
      "precisely": 9322,
      "exercise": 9323,
      "##angelo": 9324,
      "chameleon": 9325,
      "tanya": 9326,
      "rita": 9327,
      "sack": 9328,
      "##now": 9329,
      "##set": 9330,
      "meas": 9331,
      "prosecut": 9332,
      "tons": 9333,
      "floating": 9334,
      "cloak": 9335,
      "commandant": 9336,
      "dishes": 9337,
      "rehab": 9338,
      "ankle": 9339,
      "300": 9340,
      "bend": 9341,
      "vet": 9342,
      "maia": 9343,
      "##ashes": 9344,
      "disag": 9345,
      "motive": 9346,
      "healing": 9347,
      "urine": 9348,
      "employees": 9349,
      "jarvis": 9350,
      "tang": 9351,
      "##ussen": 9352,
      "assh": 9353,
      "scale": 9354,
      "##uls": 9355,
      "lightly": 9356,
      "bitter": 9357,
      "jonas": 9358,
      "crawls": 9359,
      "folded": 9360,
      "currently": 9361,
      "dramatic": 9362,
      "dud": 9363,
      "##uu": 9364,
      "##cles": 9365,
      "shion": 9366,
      "reass": 9367,
      "fra": 9368,
      "blocking": 9369,
      "tyr": 9370,
      "messing": 9371,
      "addition": 9372,
      "washing": 9373,
      "teenage": 9374,
      "jab": 9375,
      "##fall": 9376,
      "backing": 9377,
      "cheat": 9378,
      "transform": 9379,
      "growling": 9380,
      "appeared": 9381,
      "disgusted": 9382,
      "pancakes": 9383,
      "alfred": 9384,
      "alvarez": 9385,
      "benny": 9386,
      "ties": 9387,
      "##onent": 9388,
      "##leg": 9389,
[...]
